{
  "0": "<unk>",
  "1": "<s>",
  "2": "</s>",
  "3": "<0x00>",
  "4": "<0x01>",
  "5": "<0x02>",
  "6": "<0x03>",
  "7": "<0x04>",
  "8": "<0x05>",
  "9": "<0x06>",
  "10": "<0x07>",
  "11": "<0x08>",
  "12": "<0x09>",
  "13": "<0x0A>",
  "14": "<0x0B>",
  "15": "<0x0C>",
  "16": "<0x0D>",
  "17": "<0x0E>",
  "18": "<0x0F>",
  "19": "<0x10>",
  "20": "<0x11>",
  "21": "<0x12>",
  "22": "<0x13>",
  "23": "<0x14>",
  "24": "<0x15>",
  "25": "<0x16>",
  "26": "<0x17>",
  "27": "<0x18>",
  "28": "<0x19>",
  "29": "<0x1A>",
  "30": "<0x1B>",
  "31": "<0x1C>",
  "32": "<0x1D>",
  "33": "<0x1E>",
  "34": "<0x1F>",
  "35": "<0x20>",
  "36": "<0x21>",
  "37": "<0x22>",
  "38": "<0x23>",
  "39": "<0x24>",
  "40": "<0x25>",
  "41": "<0x26>",
  "42": "<0x27>",
  "43": "<0x28>",
  "44": "<0x29>",
  "45": "<0x2A>",
  "46": "<0x2B>",
  "47": "<0x2C>",
  "48": "<0x2D>",
  "49": "<0x2E>",
  "50": "<0x2F>",
  "51": "<0x30>",
  "52": "<0x31>",
  "53": "<0x32>",
  "54": "<0x33>",
  "55": "<0x34>",
  "56": "<0x35>",
  "57": "<0x36>",
  "58": "<0x37>",
  "59": "<0x38>",
  "60": "<0x39>",
  "61": "<0x3A>",
  "62": "<0x3B>",
  "63": "<0x3C>",
  "64": "<0x3D>",
  "65": "<0x3E>",
  "66": "<0x3F>",
  "67": "<0x40>",
  "68": "<0x41>",
  "69": "<0x42>",
  "70": "<0x43>",
  "71": "<0x44>",
  "72": "<0x45>",
  "73": "<0x46>",
  "74": "<0x47>",
  "75": "<0x48>",
  "76": "<0x49>",
  "77": "<0x4A>",
  "78": "<0x4B>",
  "79": "<0x4C>",
  "80": "<0x4D>",
  "81": "<0x4E>",
  "82": "<0x4F>",
  "83": "<0x50>",
  "84": "<0x51>",
  "85": "<0x52>",
  "86": "<0x53>",
  "87": "<0x54>",
  "88": "<0x55>",
  "89": "<0x56>",
  "90": "<0x57>",
  "91": "<0x58>",
  "92": "<0x59>",
  "93": "<0x5A>",
  "94": "<0x5B>",
  "95": "<0x5C>",
  "96": "<0x5D>",
  "97": "<0x5E>",
  "98": "<0x5F>",
  "99": "<0x60>",
  "100": "<0x61>",
  "101": "<0x62>",
  "102": "<0x63>",
  "103": "<0x64>",
  "104": "<0x65>",
  "105": "<0x66>",
  "106": "<0x67>",
  "107": "<0x68>",
  "108": "<0x69>",
  "109": "<0x6A>",
  "110": "<0x6B>",
  "111": "<0x6C>",
  "112": "<0x6D>",
  "113": "<0x6E>",
  "114": "<0x6F>",
  "115": "<0x70>",
  "116": "<0x71>",
  "117": "<0x72>",
  "118": "<0x73>",
  "119": "<0x74>",
  "120": "<0x75>",
  "121": "<0x76>",
  "122": "<0x77>",
  "123": "<0x78>",
  "124": "<0x79>",
  "125": "<0x7A>",
  "126": "<0x7B>",
  "127": "<0x7C>",
  "128": "<0x7D>",
  "129": "<0x7E>",
  "130": "<0x7F>",
  "131": "<0x80>",
  "132": "<0x81>",
  "133": "<0x82>",
  "134": "<0x83>",
  "135": "<0x84>",
  "136": "<0x85>",
  "137": "<0x86>",
  "138": "<0x87>",
  "139": "<0x88>",
  "140": "<0x89>",
  "141": "<0x8A>",
  "142": "<0x8B>",
  "143": "<0x8C>",
  "144": "<0x8D>",
  "145": "<0x8E>",
  "146": "<0x8F>",
  "147": "<0x90>",
  "148": "<0x91>",
  "149": "<0x92>",
  "150": "<0x93>",
  "151": "<0x94>",
  "152": "<0x95>",
  "153": "<0x96>",
  "154": "<0x97>",
  "155": "<0x98>",
  "156": "<0x99>",
  "157": "<0x9A>",
  "158": "<0x9B>",
  "159": "<0x9C>",
  "160": "<0x9D>",
  "161": "<0x9E>",
  "162": "<0x9F>",
  "163": "<0xA0>",
  "164": "<0xA1>",
  "165": "<0xA2>",
  "166": "<0xA3>",
  "167": "<0xA4>",
  "168": "<0xA5>",
  "169": "<0xA6>",
  "170": "<0xA7>",
  "171": "<0xA8>",
  "172": "<0xA9>",
  "173": "<0xAA>",
  "174": "<0xAB>",
  "175": "<0xAC>",
  "176": "<0xAD>",
  "177": "<0xAE>",
  "178": "<0xAF>",
  "179": "<0xB0>",
  "180": "<0xB1>",
  "181": "<0xB2>",
  "182": "<0xB3>",
  "183": "<0xB4>",
  "184": "<0xB5>",
  "185": "<0xB6>",
  "186": "<0xB7>",
  "187": "<0xB8>",
  "188": "<0xB9>",
  "189": "<0xBA>",
  "190": "<0xBB>",
  "191": "<0xBC>",
  "192": "<0xBD>",
  "193": "<0xBE>",
  "194": "<0xBF>",
  "195": "<0xC0>",
  "196": "<0xC1>",
  "197": "<0xC2>",
  "198": "<0xC3>",
  "199": "<0xC4>",
  "200": "<0xC5>",
  "201": "<0xC6>",
  "202": "<0xC7>",
  "203": "<0xC8>",
  "204": "<0xC9>",
  "205": "<0xCA>",
  "206": "<0xCB>",
  "207": "<0xCC>",
  "208": "<0xCD>",
  "209": "<0xCE>",
  "210": "<0xCF>",
  "211": "<0xD0>",
  "212": "<0xD1>",
  "213": "<0xD2>",
  "214": "<0xD3>",
  "215": "<0xD4>",
  "216": "<0xD5>",
  "217": "<0xD6>",
  "218": "<0xD7>",
  "219": "<0xD8>",
  "220": "<0xD9>",
  "221": "<0xDA>",
  "222": "<0xDB>",
  "223": "<0xDC>",
  "224": "<0xDD>",
  "225": "<0xDE>",
  "226": "<0xDF>",
  "227": "<0xE0>",
  "228": "<0xE1>",
  "229": "<0xE2>",
  "230": "<0xE3>",
  "231": "<0xE4>",
  "232": "<0xE5>",
  "233": "<0xE6>",
  "234": "<0xE7>",
  "235": "<0xE8>",
  "236": "<0xE9>",
  "237": "<0xEA>",
  "238": "<0xEB>",
  "239": "<0xEC>",
  "240": "<0xED>",
  "241": "<0xEE>",
  "242": "<0xEF>",
  "243": "<0xF0>",
  "244": "<0xF1>",
  "245": "<0xF2>",
  "246": "<0xF3>",
  "247": "<0xF4>",
  "248": "<0xF5>",
  "249": "<0xF6>",
  "250": "<0xF7>",
  "251": "<0xF8>",
  "252": "<0xF9>",
  "253": "<0xFA>",
  "254": "<0xFB>",
  "255": "<0xFC>",
  "256": "<0xFD>",
  "257": "<0xFE>",
  "258": "<0xFF>",
  "259": "\u2581\u2581",
  "260": "\u2581\u2581\u2581\u2581",
  "261": "\u2581t",
  "262": "in",
  "263": "er",
  "264": "\u2581a",
  "265": "he",
  "266": "on",
  "267": "re",
  "268": "\u2581s",
  "269": "en",
  "270": "at",
  "271": "or",
  "272": "\u2581the",
  "273": "\u2581\u2581\u2581\u2581\u2581\u2581\u2581\u2581",
  "274": "es",
  "275": "\u2581w",
  "276": "an",
  "277": "\u2581c",
  "278": "is",
  "279": "it",
  "280": "ou",
  "281": "\u2581d",
  "282": "al",
  "283": "ar",
  "284": "\u2581p",
  "285": "\u2581f",
  "286": "ed",
  "287": "\u2581b",
  "288": "ing",
  "289": "\u2581o",
  "290": "\u2581m",
  "291": "le",
  "292": "nd",
  "293": "as",
  "294": "ic",
  "295": "\u2581h",
  "296": "ion",
  "297": "\u2581in",
  "298": "\u2581to",
  "299": "et",
  "300": "om",
  "301": "el",
  "302": "\u2581of",
  "303": "st",
  "304": "\u2581and",
  "305": "\u2581l",
  "306": "\u2581th",
  "307": "\u2581n",
  "308": "ent",
  "309": "il",
  "310": "ct",
  "311": "ro",
  "312": "\u2581re",
  "313": "id",
  "314": "am",
  "315": "\u2581I",
  "316": "ad",
  "317": "\u2581e",
  "318": "\u2581S",
  "319": "\u2581g",
  "320": "\u2581T",
  "321": "im",
  "322": "ot",
  "323": "ac",
  "324": "ur",
  "325": "\u2581(",
  "326": "ig",
  "327": "\u2581=",
  "328": "ol",
  "329": "ut",
  "330": "\u2581A",
  "331": "se",
  "332": "\u2581u",
  "333": "ve",
  "334": "\u2581C",
  "335": "if",
  "336": "ow",
  "337": "\u2581y",
  "338": "ch",
  "339": "ay",
  "340": "\u2581de",
  "341": "\u2581st",
  "342": "\u2581|",
  "343": "ver",
  "344": ");",
  "345": "\u2581\"",
  "346": "ly",
  "347": "\u2581be",
  "348": "**",
  "349": "\u2581is",
  "350": "od",
  "351": "\u2581M",
  "352": "ation",
  "353": "ul",
  "354": "\u2581for",
  "355": "\u2581\u2581\u2581\u2581\u2581",
  "356": "\u2581on",
  "357": "ag",
  "358": "ce",
  "359": "\u2581\u2581\u2581\u2581\u2581\u2581\u2581\u2581\u2581\u2581\u2581\u2581\u2581\u2581\u2581\u2581",
  "360": "ter",
  "361": "ir",
  "362": "th",
  "363": "\u2581v",
  "364": "qu",
  "365": "\u2581B",
  "366": "em",
  "367": "\u2581P",
  "368": "\u2581you",
  "369": "\u2581that",
  "370": "un",
  "371": "\u2581{",
  "372": "ith",
  "373": "ri",
  "374": "est",
  "375": "ab",
  "376": "--",
  "377": "ap",
  "378": "\u2581it",
  "379": "\u2581con",
  "380": "ate",
  "381": "us",
  "382": "\u2581H",
  "383": "um",
  "384": "\u2581D",
  "385": "os",
  "386": "pe",
  "387": "\u2581-",
  "388": "\u2581wh",
  "389": "\u2581al",
  "390": "\u2581as",
  "391": "and",
  "392": "ist",
  "393": "\u2581L",
  "394": "\u2581W",
  "395": "\u2581with",
  "396": "\u2581an",
  "397": "ere",
  "398": "\u2581*",
  "399": "\u2581R",
  "400": "\u2581he",
  "401": "\u2581F",
  "402": "oc",
  "403": "\u2581was",
  "404": "ers",
  "405": "ke",
  "406": "out",
  "407": "ht",
  "408": "\u2581r",
  "409": "ess",
  "410": "op",
  "411": "res",
  "412": "ie",
  "413": "\u2581E",
  "414": "\u2581\\",
  "415": "\u2581The",
  "416": "end",
  "417": "ld",
  "418": "\u2581N",
  "419": "ort",
  "420": "\u2581G",
  "421": "//",
  "422": "\u2581#",
  "423": "our",
  "424": "te",
  "425": "ill",
  "426": "ain",
  "427": "\u2581se",
  "428": "\u2581\u2581\u2581\u2581\u2581\u2581",
  "429": "\u2581$",
  "430": "\u2581pro",
  "431": "ore",
  "432": "\u2581com",
  "433": "ame",
  "434": "tr",
  "435": "\u2581ne",
  "436": "rom",
  "437": "ub",
  "438": "\u2581at",
  "439": "\u2581ex",
  "440": "ant",
  "441": "ue",
  "442": "\u2581or",
  "443": "\u2581}",
  "444": "art",
  "445": "ction",
  "446": "\u2581k",
  "447": "pt",
  "448": "nt",
  "449": "iv",
  "450": "de",
  "451": "\u2581O",
  "452": "pl",
  "453": "urn",
  "454": "ight",
  "455": "all",
  "456": "\u2581this",
  "457": "ser",
  "458": "ave",
  "459": "\u2581not",
  "460": "\u2581are",
  "461": "\u2581j",
  "462": "\u2581le",
  "463": "iz",
  "464": "\u2581'",
  "465": "age",
  "466": "ment",
  "467": "\u2581tr",
  "468": "ack",
  "469": "ust",
  "470": "()",
  "471": "->",
  "472": "ity",
  "473": "ine",
  "474": "ould",
  "475": "\u2581J",
  "476": "og",
  "477": "\u2581from",
  "478": "\u2581we",
  "479": "ell",
  "480": "\u2581sh",
  "481": "\u2581en",
  "482": "ure",
  "483": "port",
  "484": "\u2581ch",
  "485": "ne",
  "486": "\u2581by",
  "487": "per",
  "488": "ard",
  "489": "ass",
  "490": "ge",
  "491": "ak",
  "492": "are",
  "493": "ok",
  "494": "av",
  "495": "ive",
  "496": "ff",
  "497": "ies",
  "498": "ath",
  "499": "turn",
  "500": "\u2581U",
  "501": "int",
  "502": "----",
  "503": "\u2581im",
  "504": "ost",
  "505": "ial",
  "506": "\u2581have",
  "507": "ind",
  "508": "ip",
  "509": "ans",
  "510": "xt",
  "511": "\u2581do",
  "512": "cl",
  "513": "\u2581if",
  "514": "con",
  "515": "ia",
  "516": "\u2581his",
  "517": "ult",
  "518": "rou",
  "519": "\u2581su",
  "520": "ra",
  "521": "\u2581un",
  "522": "able",
  "523": "\u2581<",
  "524": "\u2581K",
  "525": "ome",
  "526": "\u2581qu",
  "527": "get",
  "528": "\u2581me",
  "529": "ast",
  "530": "ect",
  "531": "\u2581##",
  "532": "to",
  "533": "\u2581cl",
  "534": "\u2581ab",
  "535": "ice",
  "536": "ire",
  "537": "ber",
  "538": "one",
  "539": "ich",
  "540": "hen",
  "541": "\u2581can",
  "542": "\u2581Th",
  "543": "\u2581la",
  "544": "\u2581all",
  "545": "ime",
  "546": "ile",
  "547": "ide",
  "548": "\",",
  "549": "\u2581pl",
  "550": "\u2581V",
  "551": "ru",
  "552": "orm",
  "553": "\u2581had",
  "554": "ud",
  "555": "ase",
  "556": "ord",
  "557": "),",
  "558": "\u2581\u2581\u2581\u2581\u2581\u2581\u2581\u2581\u2581\u2581\u2581\u2581",
  "559": "\u2581her",
  "560": "\u2581In",
  "561": "ace",
  "562": "\u2581but",
  "563": "ata",
  "564": "::",
  "565": "****",
  "566": "ong",
  "567": "\u2581&",
  "568": "..",
  "569": "\u2581\u2581\u2581\u2581\u2581\u2581\u2581\u2581\u2581\u2581\u2581\u2581\u2581",
  "570": "ite",
  "571": "ype",
  "572": "act",
  "573": "ode",
  "574": "\u2581your",
  "575": "\u2581out",
  "576": "\u2581go",
  "577": "lic",
  "578": "ally",
  "579": "\u2581so",
  "580": "ork",
  "581": "au",
  "582": "\u2581up",
  "583": "\u2581_",
  "584": "ll",
  "585": "==",
  "586": "\u2581my",
  "587": "pp",
  "588": "cc",
  "589": "\u2581//",
  "590": "\u2581they",
  "591": "gh",
  "592": "\u2581us",
  "593": "ib",
  "594": "ions",
  "595": "ach",
  "596": "ens",
  "597": "\u2581ar",
  "598": "ob",
  "599": "elf",
  "600": "ook",
  "601": "ated",
  "602": "ang",
  "603": "ign",
  "604": "\u2581return",
  "605": "\u2581res",
  "606": "ck",
  "607": "ous",
  "608": "\u0441\u0442",
  "609": ").",
  "610": "\u2581\u043f",
  "611": ".\"",
  "612": "\u043d\u0430",
  "613": "\u2581i",
  "614": "ail",
  "615": "ep",
  "616": "\u2581ad",
  "617": "ance",
  "618": "(\"",
  "619": "\u2581**",
  "620": "ther",
  "621": "ake",
  "622": "\u2581will",
  "623": "\u2581comp",
  "624": "\u2581one",
  "625": "\u2581get",
  "626": "ov",
  "627": "\u2581Y",
  "628": "ary",
  "629": "ock",
  "630": "\u2581she",
  "631": "che",
  "632": "ft",
  "633": "\u2581new",
  "634": "\u2581des",
  "635": "\u2581li",
  "636": "ence",
  "637": "\u2581sa",
  "638": "ress",
  "639": "\u2581el",
  "640": "\u2581und",
  "641": "eg",
  "642": "fer",
  "643": "ry",
  "644": "ear",
  "645": "ose",
  "646": "very",
  "647": "',",
  "648": "\u2581+",
  "649": "\u2581\u0432",
  "650": "\u2581He",
  "651": "ublic",
  "652": "\u2581their",
  "653": "ize",
  "654": "\u2581were",
  "655": "ink",
  "656": "own",
  "657": "In",
  "658": "{\\",
  "659": "\u2581has",
  "660": "\u2581per",
  "661": "\u2581It",
  "662": "\u2581St",
  "663": "her",
  "664": "ject",
  "665": "\u0440\u0430",
  "666": "ild",
  "667": "so",
  "668": "\u2581sp",
  "669": "\u043d\u0438",
  "670": "du",
  "671": "row",
  "672": "alue",
  "673": "set",
  "674": "form",
  "675": "com",
  "676": "\u2581man",
  "677": "ont",
  "678": "ull",
  "679": "\u2581cont",
  "680": "\u2581more",
  "681": "ick",
  "682": "\u2581would",
  "683": "\u2581ev",
  "684": "\u2581about",
  "685": "ition",
  "686": "\u2581z",
  "687": "ound",
  "688": "ree",
  "689": "\u2581Ch",
  "690": "\u2581which",
  "691": "io",
  "692": "();",
  "693": "\u2581who",
  "694": "err",
  "695": "ory",
  "696": "ount",
  "697": "ations",
  "698": "\u2581\u0441",
  "699": "ring",
  "700": "</",
  "701": "\u2581fe",
  "702": "\u043a\u043e",
  "703": "\u043d\u043e",
  "704": "\u2581dis",
  "705": "ma",
  "706": "\u2581them",
  "707": "\u2581any",
  "708": "\u2581no",
  "709": "--------",
  "710": "\u2581pre",
  "711": "\u2581te",
  "712": "\u2581ro",
  "713": "\u2581him",
  "714": "\u2581:",
  "715": "up",
  "716": "\u2581int",
  "717": "\u2581ag",
  "718": "St",
  "719": "ark",
  "720": "ex",
  "721": "ph",
  "722": "ient",
  "723": "ely",
  "724": "\u2581pr",
  "725": "ER",
  "726": "\u2581import",
  "727": "\u2581time",
  "728": "\u0440\u043e",
  "729": "pro",
  "730": "User",
  "731": "lo",
  "732": "\u2581/",
  "733": "\u2581[",
  "734": "ors",
  "735": "=\"",
  "736": "\u2581there",
  "737": "\u2581like",
  "738": "old",
  "739": "\u2581when",
  "740": "vers",
  "741": "\u2581some",
  "742": "ings",
  "743": "))",
  "744": "\u2581part",
  "745": "ical",
  "746": "\u2581fun",
  "747": "\u2581kn",
  "748": "ays",
  "749": "ier",
  "750": "\u2581been",
  "751": "ove",
  "752": "\u2581sc",
  "753": "ian",
  "754": "\u2581over",
  "755": "iel",
  "756": "\u2581\u2581\u2581\u2581\u2581\u2581\u2581\u2581\u2581\u2581",
  "757": "\u2581pe",
  "758": "rib",
  "759": "put",
  "760": "ec",
  "761": "eth",
  "762": "aram",
  "763": "app",
  "764": "\u2581\u2013",
  "765": "\u2581stat",
  "766": "pon",
  "767": "\u2581what",
  "768": "ption",
  "769": "we",
  "770": "ade",
  "771": "\u2581work",
  "772": "text",
  "773": "\u2581said",
  "774": "\u2581###",
  "775": "IN",
  "776": "\u2581just",
  "777": "irst",
  "778": "\u2581into",
  "779": "\u2581const",
  "780": "ource",
  "781": "tt",
  "782": "ps",
  "783": "pr",
  "784": "erv",
  "785": "itt",
  "786": "ug",
  "787": "_{",
  "788": "ents",
  "789": "ish",
  "790": "ener",
  "791": "\u2581inter",
  "792": "ple",
  "793": "oll",
  "794": "mer",
  "795": "ater",
  "796": "ool",
  "797": "ef",
  "798": "\u2581public",
  "799": "\u2581other",
  "800": "\u0440\u0435",
  "801": "\u2581def",
  "802": "\u2581@",
  "803": "\u0433\u043e",
  "804": "oint",
  "805": "\u2581off",
  "806": "oid",
  "807": "return",
  "808": "\u2581set",
  "809": "wo",
  "810": "fter",
  "811": "sh",
  "812": "********",
  "813": "\u2581our",
  "814": "riv",
  "815": "iss",
  "816": "\u2581We",
  "817": "ng",
  "818": "\u2581ob",
  "819": "ss",
  "820": "gr",
  "821": "\u2581than",
  "822": "pect",
  "823": "ied",
  "824": "sc",
  "825": "iew",
  "826": "der",
  "827": "yst",
  "828": "ev",
  "829": "\u2581could",
  "830": "ann",
  "831": "enc",
  "832": "ON",
  "833": "ix",
  "834": "anc",
  "835": "\u2581also",
  "836": "reat",
  "837": "\u2581am",
  "838": "\u2581bec",
  "839": "\u2581\u0438",
  "840": "ual",
  "841": "pec",
  "842": "\u2581.",
  "843": "\u2581bl",
  "844": "lect",
  "845": "ople",
  "846": "ys",
  "847": "\u2581gr",
  "848": "ict",
  "849": "ik",
  "850": "tring",
  "851": "\u2581This",
  "852": "\u2581back",
  "853": "\u2581\u043e",
  "854": "\u2581fin",
  "855": "atch",
  "856": "Con",
  "857": "('",
  "858": "erm",
  "859": "\u2581==",
  "860": "__",
  "861": "name",
  "862": ",\"",
  "863": "\u2581did",
  "864": "ise",
  "865": "\u2581only",
  "866": "ruct",
  "867": "les",
  "868": "\u2581then",
  "869": "ause",
  "870": "\u0432\u0430",
  "871": "\u2581its",
  "872": "rit",
  "873": "\u2581know",
  "874": "ield",
  "875": "\u2581class",
  "876": "\u2581>",
  "877": "\u2581em",
  "878": "\u2581$\\",
  "879": "\u2581year",
  "880": "wn",
  "881": "},",
  "882": "\u2581del",
  "883": "ale",
  "884": "ty",
  "885": "fig",
  "886": "sp",
  "887": "hed",
  "888": "round",
  "889": "ew",
  "890": "\u2581di",
  "891": "\u2581der",
  "892": "\u0440\u0438",
  "893": "red",
  "894": "this",
  "895": "let",
  "896": "RE",
  "897": "ax",
  "898": "fr",
  "899": "essage",
  "900": "ough",
  "901": "\u2581comm",
  "902": "fo",
  "903": "uch",
  "904": "oy",
  "905": "\u2581people",
  "906": "ystem",
  "907": "\u2581first",
  "908": "\u2581function",
  "909": "ange",
  "910": "\u2581how",
  "911": "\u2581et",
  "912": "ah",
  "913": "\u2581look",
  "914": "\u0442\u043e",
  "915": "und",
  "916": "\u2581under",
  "917": "\u043a\u0430",
  "918": "\u2581!",
  "919": "ray",
  "920": "ST",
  "921": "ific",
  "922": "\u043b\u0438",
  "923": "read",
  "924": "\u2581bet",
  "925": "ious",
  "926": "arg",
  "927": "\u2581need",
  "928": "math",
  "929": "\u2581\u043d\u0430",
  "930": "ert",
  "931": "\u2581op",
  "932": "\u2581acc",
  "933": "Pro",
  "934": "\u2581est",
  "935": "\u2581Un",
  "936": "\u2581ent",
  "937": "\u2581rec",
  "938": "\u2581use",
  "939": "\u0435\u043d",
  "940": "\u2581par",
  "941": "az",
  "942": "\u2581\u0434",
  "943": "\u2581Wh",
  "944": "self",
  "945": "\u2581ke",
  "946": "\u0442\u0430",
  "947": "\u2581want",
  "948": "\u2581end",
  "949": "\u2581don",
  "950": "ek",
  "951": "ren",
  "952": "Name",
  "953": "\u2581=>",
  "954": "\u2581app",
  "955": "\u2581que",
  "956": "igh",
  "957": "\u2581bu",
  "958": "equ",
  "959": "vel",
  "960": "\u2581act",
  "961": "cre",
  "962": "AT",
  "963": "\u2581var",
  "964": "cess",
  "965": "====",
  "966": "Ex",
  "967": "\u2581add",
  "968": "\u2581mod",
  "969": "ung",
  "970": "\u2581where",
  "971": "ning",
  "972": "\u2581fl",
  "973": "als",
  "974": "tern",
  "975": "}}",
  "976": "\u2581Al",
  "977": "\u2581pos",
  "978": "ank",
  "979": "\u2581ap",
  "980": "eng",
  "981": "\u2581\u201c",
  "982": "ble",
  "983": "\u2581reg",
  "984": "^{",
  "985": "\u2581She",
  "986": "\u2581*/",
  "987": "ude",
  "988": "add",
  "989": "\u2581two",
  "990": "\u2581col",
  "991": "\u2581sm",
  "992": "air",
  "993": "\u2581may",
  "994": "fore",
  "995": "\u2581You",
  "996": "rough",
  "997": "\u2581che",
  "998": "\u2581att",
  "999": "oth",
  "1000": "\u043b\u0430",
  "1001": "\u2581co",
  "1002": "ates",
  "1003": "\u2581rem",
  "1004": "ood",
  "1005": "Type",
  "1006": "led",
  "1007": "ful",
  "1008": "\u2581self",
  "1009": "of",
  "1010": "\u2581Ar",
  "1011": "que",
  "1012": "\u2581every",
  "1013": "ref",
  "1014": "The",
  "1015": "\u2581And",
  "1016": "\u2581rel",
  "1017": "OR",
  "1018": "Id",
  "1019": "\u2581even",
  "1020": "EN",
  "1021": "\u2581hand",
  "1022": "ait",
  "1023": "\u2581should",
  "1024": "\u2581after",
  "1025": "\u2581dif",
  "1026": "ght",
  "1027": "ife",
  "1028": "ator",
  "1029": "ash",
  "1030": "ribut",
  "1031": "umber",
  "1032": "\u2581see",
  "1033": "ms",
  "1034": "\u2581call",
  "1035": "yn",
  "1036": "dd",
  "1037": "\u2581es",
  "1038": "\u2581make",
  "1039": "other",
  "1040": "\u2581\u2014",
  "1041": "\");",
  "1042": "str",
  "1043": "\u2581long",
  "1044": "lement",
  "1045": "\u2581wor",
  "1046": "its",
  "1047": "\u2581If",
  "1048": "alse",
  "1049": "\u043b\u044c",
  "1050": "ward",
  "1051": "\u2581\u043f\u043e",
  "1052": "val",
  "1053": "ons",
  "1054": "\u2581Z",
  "1055": "\u2581now",
  "1056": "data",
  "1057": "amp",
  "1058": "ense",
  "1059": "\u2581through",
  "1060": "\u2581down",
  "1061": "att",
  "1062": "\u2581static",
  "1063": "ics",
  "1064": "##",
  "1065": "pos",
  "1066": "\u2581void",
  "1067": "aw",
  "1068": "oun",
  "1069": "\u2581way",
  "1070": "ible",
  "1071": "vent",
  "1072": "ower",
  "1073": "\u2581think",
  "1074": "ts",
  "1075": "*/",
  "1076": "\u2581again",
  "1077": "ating",
  "1078": "\u0442\u0435",
  "1079": "ner",
  "1080": "\u2581most",
  "1081": "line",
  "1082": "ym",
  "1083": "\u2581sub",
  "1084": "erson",
  "1085": "\u2581requ",
  "1086": "AL",
  "1087": "AR",
  "1088": "abel",
  "1089": "ond",
  "1090": "));",
  "1091": "\u2581Se",
  "1092": "\u2581But",
  "1093": "alk",
  "1094": "\u2581An",
  "1095": "new",
  "1096": "\u2581because",
  "1097": "ger",
  "1098": "ular",
  "1099": "roup",
  "1100": "ta",
  "1101": "...",
  "1102": "\u2581cons",
  "1103": "\u2581right",
  "1104": "\u2581fr",
  "1105": "be",
  "1106": "ily",
  "1107": "\u043a\u0438",
  "1108": "\u2581ph",
  "1109": "ead",
  "1110": "?\"",
  "1111": "\u2581gu",
  "1112": "\u2581else",
  "1113": "\u2581som",
  "1114": "rent",
  "1115": "co",
  "1116": "ement",
  "1117": "\u2581str",
  "1118": "ault",
  "1119": "\u2581\u0437",
  "1120": "\u043b\u043e",
  "1121": "sert",
  "1122": "var",
  "1123": "type",
  "1124": "\u2581Com",
  "1125": "\u043b\u0435",
  "1126": "ins",
  "1127": "me",
  "1128": "way",
  "1129": "ident",
  "1130": "\u2581prov",
  "1131": "\u2581\u043c",
  "1132": "\u2581true",
  "1133": "\u2581Pro",
  "1134": "fl",
  "1135": "\u2581sl",
  "1136": "\u2581As",
  "1137": "}\\",
  "1138": "ID",
  "1139": "ues",
  "1140": "\u2581inst",
  "1141": "\u2581name",
  "1142": "ox",
  "1143": "\u2581)",
  "1144": "li",
  "1145": "ames",
  "1146": "Res",
  "1147": "\u2581sur",
  "1148": "param",
  "1149": "\u2581start",
  "1150": "aj",
  "1151": "SE",
  "1152": "ask",
  "1153": "IT",
  "1154": "String",
  "1155": "\u2581ass",
  "1156": "\u2581play",
  "1157": "ting",
  "1158": "ton",
  "1159": "\u2581before",
  "1160": "\u2581pol",
  "1161": "arch",
  "1162": "\u2581well",
  "1163": "Com",
  "1164": "any",
  "1165": "olog",
  "1166": "\u2581err",
  "1167": "\u2581these",
  "1168": "ars",
  "1169": "eb",
  "1170": "\u2581br",
  "1171": "\u2581incl",
  "1172": "\u2581hel",
  "1173": "ern",
  "1174": "ody",
  "1175": "\u0432\u043e",
  "1176": "\u2581ind",
  "1177": "----------------",
  "1178": "\u2581data",
  "1179": "\u2581good",
  "1180": "LE",
  "1181": "],",
  "1182": "\u2581av",
  "1183": "\u2581ac",
  "1184": "ider",
  "1185": "\u043d\u0435",
  "1186": "\u2581Q",
  "1187": "\u2581min",
  "1188": "\u2581much",
  "1189": "ci",
  "1190": "els",
  "1191": "\u2581cur",
  "1192": "\u2581value",
  "1193": "ery",
  "1194": "uf",
  "1195": "\u2581loc",
  "1196": "reak",
  "1197": "ative",
  "1198": "imes",
  "1199": "Cl",
  "1200": "\u2581,",
  "1201": "\u2581ser",
  "1202": "\u2581die",
  "1203": "\u2581trans",
  "1204": "\u2581result",
  "1205": "ext",
  "1206": "\u2581aut",
  "1207": "land",
  "1208": "\u2581&&",
  "1209": "Ch",
  "1210": "ten",
  "1211": "}$",
  "1212": "\u2581type",
  "1213": "cond",
  "1214": "ices",
  "1215": "\u2581very",
  "1216": "\u2581own",
  "1217": "\u2581fil",
  "1218": "ities",
  "1219": "\u2581produ",
  "1220": "\u2581read",
  "1221": "\u2581form",
  "1222": "\u2581case",
  "1223": "ather",
  "1224": "\u0442\u0438",
  "1225": "\u0434\u0430",
  "1226": "\u0435\u0440",
  "1227": "Th",
  "1228": "aut",
  "1229": "\u2581spec",
  "1230": "ij",
  "1231": "bl",
  "1232": "ility",
  "1233": "\u2581\u00e9",
  "1234": "\u2581er",
  "1235": "\u2581does",
  "1236": "\u2581here",
  "1237": "the",
  "1238": "ures",
  "1239": "\u2581%",
  "1240": "min",
  "1241": "\u2581null",
  "1242": "rap",
  "1243": "\")",
  "1244": "rr",
  "1245": "List",
  "1246": "right",
  "1247": "\u2581User",
  "1248": "UL",
  "1249": "ational",
  "1250": "\u2581being",
  "1251": "AN",
  "1252": "sk",
  "1253": "\u2581car",
  "1254": "ole",
  "1255": "\u2581dist",
  "1256": "plic",
  "1257": "ollow",
  "1258": "\u2581pres",
  "1259": "\u2581such",
  "1260": "ream",
  "1261": "ince",
  "1262": "gan",
  "1263": "\u2581For",
  "1264": "\":",
  "1265": "son",
  "1266": "rivate",
  "1267": "\u2581years",
  "1268": "\u2581serv",
  "1269": "\u2581made",
  "1270": "def",
  "1271": ";\r",
  "1272": "\u2581gl",
  "1273": "\u2581bel",
  "1274": "\u2581list",
  "1275": "\u2581cor",
  "1276": "\u2581det",
  "1277": "ception",
  "1278": "egin",
  "1279": "\u2581\u0431",
  "1280": "\u2581char",
  "1281": "trans",
  "1282": "\u2581fam",
  "1283": "\u2581!=",
  "1284": "ouse",
  "1285": "\u2581dec",
  "1286": "ica",
  "1287": "\u2581many",
  "1288": "aking",
  "1289": "\u2581\u00e0",
  "1290": "\u2581sim",
  "1291": "ages",
  "1292": "uff",
  "1293": "ased",
  "1294": "man",
  "1295": "\u2581Sh",
  "1296": "iet",
  "1297": "irect",
  "1298": "\u2581Re",
  "1299": "\u2581differ",
  "1300": "\u2581find",
  "1301": "ethod",
  "1302": "\u2581\r",
  "1303": "ines",
  "1304": "\u2581inv",
  "1305": "\u2581point",
  "1306": "\u2581They",
  "1307": "\u2581used",
  "1308": "ctions",
  "1309": "\u2581still",
  "1310": "i\u00f3",
  "1311": "ined",
  "1312": "\u2581while",
  "1313": "It",
  "1314": "ember",
  "1315": "\u2581say",
  "1316": "\u2581help",
  "1317": "\u2581cre",
  "1318": "\u2581x",
  "1319": "\u2581Tr",
  "1320": "ument",
  "1321": "\u2581sk",
  "1322": "ought",
  "1323": "ually",
  "1324": "message",
  "1325": "\u2581Con",
  "1326": "\u2581mon",
  "1327": "ared",
  "1328": "work",
  "1329": "):",
  "1330": "ister",
  "1331": "arn",
  "1332": "ized",
  "1333": "Data",
  "1334": "orn",
  "1335": "\u2581head",
  "1336": "DE",
  "1337": "\u2581Le",
  "1338": "\u2581person",
  "1339": "ments",
  "1340": "ength",
  "1341": "\u2581false",
  "1342": "\u2581med",
  "1343": "\u2581De",
  "1344": "ache",
  "1345": "ited",
  "1346": "\u2581let",
  "1347": "\u2581show",
  "1348": "\u2581same",
  "1349": "uss",
  "1350": "\u2581gener",
  "1351": "\u2581\u0443",
  "1352": "cur",
  "1353": "\u2581real",
  "1354": "ced",
  "1355": "\">",
  "1356": "struct",
  "1357": "begin",
  "1358": "cept",
  "1359": "\u2581bo",
  "1360": "ired",
  "1361": "\u2581Fr",
  "1362": "\u2581stud",
  "1363": "dev",
  "1364": "Ar",
  "1365": "(\\",
  "1366": "\u2581Cl",
  "1367": "ween",
  "1368": "\u2581too",
  "1369": "\u2581test",
  "1370": "\u2581day",
  "1371": "oh",
  "1372": "\u2581follow",
  "1373": "ature",
  "1374": "ze",
  "1375": "ien",
  "1376": "reg",
  "1377": "ces",
  "1378": "uring",
  "1379": "amb",
  "1380": "ina",
  "1381": "cri",
  "1382": "\u2581ed",
  "1383": "SS",
  "1384": "uck",
  "1385": "\u2581/*",
  "1386": "CT",
  "1387": "\u2581There",
  "1388": "\u2581take",
  "1389": "par",
  "1390": "ule",
  "1391": "cal",
  "1392": "for",
  "1393": "****************",
  "1394": "source",
  "1395": "\u2581those",
  "1396": "col",
  "1397": "\u2581eff",
  "1398": "mod",
  "1399": "cont",
  "1400": "}{",
  "1401": "\u2581around",
  "1402": "press",
  "1403": "by",
  "1404": "\u2581going",
  "1405": "ponse",
  "1406": "\u2581\u0421",
  "1407": "\u2581line",
  "1408": "date",
  "1409": "code",
  "1410": "['",
  "1411": "\u2581life",
  "1412": "ason",
  "1413": "\u2581using",
  "1414": "\u2581val",
  "1415": "\u2581du",
  "1416": "yp",
  "1417": "\u2581\u2581\u2581\u2581\u2581\u2581\u2581\u2581\u2581\u2581\u2581\u2581\u2581\u2581",
  "1418": "\u2581On",
  "1419": "\u2581found",
  "1420": "olut",
  "1421": "']",
  "1422": "arent",
  "1423": "\u2581string",
  "1424": "\u2581met",
  "1425": "\u2581wr",
  "1426": "ush",
  "1427": "string",
  "1428": "size",
  "1429": "\u2581ver",
  "1430": "\u2581each",
  "1431": "value",
  "1432": "\u2581last",
  "1433": "\u2581got",
  "1434": "ven",
  "1435": "back",
  "1436": "Set",
  "1437": "ey",
  "1438": "rol",
  "1439": "\u2581cr",
  "1440": "thing",
  "1441": "ret",
  "1442": "\u00e9s",
  "1443": "ism",
  "1444": "\u2581between",
  "1445": "Ob",
  "1446": "ething",
  "1447": "mp",
  "1448": "\u2581lo",
  "1449": "ats",
  "1450": "\u2581New",
  "1451": "\u0432\u0438",
  "1452": "ado",
  "1453": "dex",
  "1454": "\u0434\u0438",
  "1455": "\u2581pass",
  "1456": "wh",
  "1457": "\u2581den",
  "1458": "Get",
  "1459": "apt",
  "1460": "\u2581ask",
  "1461": "\u2581sup",
  "1462": "Value",
  "1463": "\u043d\u044b",
  "1464": "\u2581try",
  "1465": "lation",
  "1466": "day",
  "1467": "ness",
  "1468": "ets",
  "1469": "\u2581exper",
  "1470": "Tr",
  "1471": "\u2581Mar",
  "1472": "serv",
  "1473": "br",
  "1474": "\u2581number",
  "1475": "inal",
  "1476": "cent",
  "1477": "/*",
  "1478": "not",
  "1479": "ional",
  "1480": "\u2581final",
  "1481": "')",
  "1482": "\u2581run",
  "1483": "over",
  "1484": "\u2581never",
  "1485": "uc",
  "1486": "\u2581high",
  "1487": "yle",
  "1488": "\u2581ins",
  "1489": "\u2581best",
  "1490": "ittle",
  "1491": "ric",
  "1492": "\u2581sign",
  "1493": "\u2581dem",
  "1494": "iness",
  "1495": "gy",
  "1496": "\u2581war",
  "1497": "ished",
  "1498": "\u2581giv",
  "1499": "key",
  "1500": "\u2581X",
  "1501": "($",
  "1502": "\u2581child",
  "1503": "less",
  "1504": "ways",
  "1505": "incl",
  "1506": "rop",
  "1507": "raw",
  "1508": "://",
  "1509": "\u2581\u00ab",
  "1510": "no",
  "1511": "indow",
  "1512": "fe",
  "1513": "riend",
  "1514": "\u2581les",
  "1515": "\u2581los",
  "1516": "file",
  "1517": "formation",
  "1518": "ccess",
  "1519": "\u2581\u0412",
  "1520": "na",
  "1521": "\u2581il",
  "1522": "ision",
  "1523": "ler",
  "1524": "\u2581art",
  "1525": "Cont",
  "1526": "\u2581world",
  "1527": "\u2581turn",
  "1528": "\u2581really",
  "1529": "\u2581Ex",
  "1530": "\u043c\u0430",
  "1531": "\u2581\u041f",
  "1532": "ters",
  "1533": "arget",
  "1534": "Err",
  "1535": "\u2581happ",
  "1536": "time",
  "1537": "\u2581So",
  "1538": "div",
  "1539": "\u2581didn",
  "1540": "ada",
  "1541": "oot",
  "1542": "})",
  "1543": "\u2581sch",
  "1544": "\u2581cle",
  "1545": "\u2581something",
  "1546": "().",
  "1547": "\u2581cour",
  "1548": "ever",
  "1549": "ants",
  "1550": "\u2581?",
  "1551": "To",
  "1552": "\u2581`",
  "1553": "try",
  "1554": "ux",
  "1555": "ais",
  "1556": "ross",
  "1557": "hip",
  "1558": "\u2581rep",
  "1559": "label",
  "1560": "\u2581both",
  "1561": "*,",
  "1562": "ott",
  "1563": "\u043c\u0438",
  "1564": "ane",
  "1565": "\u2581open",
  "1566": "ww",
  "1567": "\u2581come",
  "1568": "\u2581ext",
  "1569": "rem",
  "1570": "_{\\",
  "1571": "\u2581old",
  "1572": "ched",
  "1573": "._",
  "1574": "ME",
  "1575": "ify",
  "1576": "gg",
  "1577": "Col",
  "1578": "view",
  "1579": "\u2581bus",
  "1580": "\u2581must",
  "1581": "\u2581different",
  "1582": "log",
  "1583": "ists",
  "1584": "roll",
  "1585": "ai",
  "1586": "\u2581\u0437\u0430",
  "1587": "\u2581system",
  "1588": "ivers",
  "1589": "atus",
  "1590": "ote",
  "1591": "med",
  "1592": "].",
  "1593": "akes",
  "1594": "RO",
  "1595": "\u2581cent",
  "1596": "gram",
  "1597": "\u2581private",
  "1598": "\u2581great",
  "1599": "\";",
  "1600": "opy",
  "1601": "\u2581feel",
  "1602": "\u2581How",
  "1603": "////",
  "1604": "IC",
  "1605": "\u2581dr",
  "1606": "ains",
  "1607": "lock",
  "1608": "En",
  "1609": "\u2581Sch",
  "1610": "\u2581mat",
  "1611": "\u2581home",
  "1612": "perty",
  "1613": "test",
  "1614": "loc",
  "1615": "\u2581wom",
  "1616": "sw",
  "1617": "arly",
  "1618": "\u2581En",
  "1619": "\u2581\u043a\u043e",
  "1620": "den",
  "1621": "\u0441\u0442\u0430",
  "1622": "\u2581\u0430",
  "1623": "eter",
  "1624": "\u2581includ",
  "1625": "ULL",
  "1626": "\u2581mem",
  "1627": "\u2581po",
  "1628": "\u2581little",
  "1629": "\u2581arg",
  "1630": "\u2581},",
  "1631": "include",
  "1632": "eta",
  "1633": "\u2581place",
  "1634": "idth",
  "1635": "ustom",
  "1636": "\u2581||",
  "1637": "\u2581tem",
  "1638": "ried",
  "1639": "\u2581fact",
  "1640": "ience",
  "1641": "\u2581Pl",
  "1642": "opt",
  "1643": "ele",
  "1644": "go",
  "1645": "AC",
  "1646": "inter",
  "1647": "========",
  "1648": "(),",
  "1649": "ots",
  "1650": "ral",
  "1651": "ique",
  "1652": "aving",
  "1653": "ml",
  "1654": "\u2581thought",
  "1655": "frac",
  "1656": "\u2581care",
  "1657": "());",
  "1658": "\u2581put",
  "1659": "\u2581might",
  "1660": "\u2581Amer",
  "1661": "\u2581(!",
  "1662": "ample",
  "1663": "alth",
  "1664": "\u2581few",
  "1665": "\u2581state",
  "1666": "sub",
  "1667": "\u2581Or",
  "1668": "];",
  "1669": "\u2581size",
  "1670": "\u2581Sp",
  "1671": "\u2581without",
  "1672": "\u2581poss",
  "1673": "eq",
  "1674": "play",
  "1675": "\u2581expect",
  "1676": "\u2581second",
  "1677": "\u2581String",
  "1678": "uild",
  "1679": "\u2581next",
  "1680": "++",
  "1681": "requ",
  "1682": "\u2581All",
  "1683": "\u2581men",
  "1684": "\u2581When",
  "1685": "iter",
  "1686": "ament",
  "1687": "net",
  "1688": "\u2581\u041a",
  "1689": "ron",
  "1690": "aint",
  "1691": "\u2581Is",
  "1692": "\u0432\u0435",
  "1693": "pend",
  "1694": "translation",
  "1695": "\u2581\u0433\u043e",
  "1696": "\u0447\u0435",
  "1697": "\u2581van",
  "1698": "\u2581another",
  "1699": "\u2581ret",
  "1700": "\u2581La",
  "1701": "Mod",
  "1702": "ION",
  "1703": "list",
  "1704": "\u2581post",
  "1705": "da",
  "1706": "ware",
  "1707": "\u2581word",
  "1708": "Error",
  "1709": "\u2581seem",
  "1710": "\u2581contin",
  "1711": "atic",
  "1712": "\u2581three",
  "1713": "Object",
  "1714": "\u2581partic",
  "1715": "$.",
  "1716": "\u2581mark",
  "1717": "\u2581vis",
  "1718": "rc",
  "1719": "\u2581sw",
  "1720": "ptions",
  "1721": "\u2581break",
  "1722": "\u2581things",
  "1723": "ute",
  "1724": "ui",
  "1725": "\u2581That",
  "1726": "urs",
  "1727": "gl",
  "1728": "\u0440\u0443",
  "1729": "\u2581file",
  "1730": "use",
  "1731": "igned",
  "1732": "part",
  "1733": "Un",
  "1734": "\u2581equ",
  "1735": "(&",
  "1736": "\u2581lead",
  "1737": "rm",
  "1738": "ained",
  "1739": "\u2581Be",
  "1740": "path",
  "1741": "\u2581small",
  "1742": "ager",
  "1743": "\u2581always",
  "1744": "\u2581El",
  "1745": "\u2581order",
  "1746": "\u2581ey",
  "1747": "\u2581won",
  "1748": "ape",
  "1749": "\u2581left",
  "1750": "ava",
  "1751": "item",
  "1752": "hor",
  "1753": "\u2581away",
  "1754": "bb",
  "1755": "fun",
  "1756": "\u2581Ind",
  "1757": "mb",
  "1758": "\u2581struct",
  "1759": "\u2581process",
  "1760": "\u2581support",
  "1761": ");\r",
  "1762": "i\u00f3n",
  "1763": "LO",
  "1764": "\u2581oper",
  "1765": "UT",
  "1766": "\u2581\u00b7",
  "1767": "PE",
  "1768": "load",
  "1769": "off",
  "1770": "\u2581No",
  "1771": "ives",
  "1772": "ican",
  "1773": "\u2581ve",
  "1774": "action",
  "1775": "';",
  "1776": "\u2581vo",
  "1777": "$,",
  "1778": "\u2581Gr",
  "1779": "pre",
  "1780": "ny",
  "1781": "aining",
  "1782": "ior",
  "1783": "init",
  "1784": "lection",
  "1785": "arm",
  "1786": "umn",
  "1787": "ags",
  "1788": "\u0446\u0438",
  "1789": "\u0441\u043a\u043e",
  "1790": "version",
  "1791": "\u2581To",
  "1792": "\u2581ref",
  "1793": "stand",
  "1794": "\u2581At",
  "1795": "ift",
  "1796": "\u2581ein",
  "1797": "face",
  "1798": "bo",
  "1799": "ified",
  "1800": "ved",
  "1801": "sum",
  "1802": "une",
  "1803": "ital",
  "1804": "ump",
  "1805": "comm",
  "1806": "\u2581mov",
  "1807": "elt",
  "1808": "\u2581von",
  "1809": "velop",
  "1810": "ctor",
  "1811": "head",
  "1812": "cle",
  "1813": "\u2581build",
  "1814": "inc",
  "1815": ".'",
  "1816": "bs",
  "1817": "info",
  "1818": "chn",
  "1819": "\u2581week",
  "1820": "\u2581book",
  "1821": "HE",
  "1822": "bar",
  "1823": "icense",
  "1824": "\u2581What",
  "1825": "\u2581quest",
  "1826": "urch",
  "1827": "ato",
  "1828": "left",
  "1829": "\u2581mar",
  "1830": "\u2581top",
  "1831": "FF",
  "1832": "\u2581friend",
  "1833": "\u2581beh",
  "1834": "\u2581field",
  "1835": "\u2581against",
  "1836": "ract",
  "1837": "ization",
  "1838": "user",
  "1839": "chen",
  "1840": "\u2581keep",
  "1841": "AD",
  "1842": "itor",
  "1843": "\u2581non",
  "1844": "ird",
  "1845": "ope",
  "1846": "\u2581rest",
  "1847": "\u2581dev",
  "1848": "\u2581__",
  "1849": "\u2581una",
  "1850": "\u2581term",
  "1851": "IS",
  "1852": "\u2581pop",
  "1853": "rist",
  "1854": "\u2581since",
  "1855": "ves",
  "1856": "\u2581hard",
  "1857": "pi",
  "1858": "util",
  "1859": "\u2581soc",
  "1860": "ene",
  "1861": "Exception",
  "1862": "\u2581local",
  "1863": "\u2581direct",
  "1864": "\u2581sure",
  "1865": "\u2581bro",
  "1866": "\u2581da",
  "1867": "\u2581</",
  "1868": "\u2581current",
  "1869": "':",
  "1870": "Wh",
  "1871": "\u2581information",
  "1872": "\u2581ide",
  "1873": "\u2581better",
  "1874": "Text",
  "1875": "raph",
  "1876": "\u2581stand",
  "1877": "\u2581check",
  "1878": "\u2581\u043a",
  "1879": "\u2581na",
  "1880": "((",
  "1881": "outh",
  "1882": "aps",
  "1883": "\u2581unt",
  "1884": "bf",
  "1885": "\u2581conf",
  "1886": "\u2581spe",
  "1887": "itle",
  "1888": "\u2581Col",
  "1889": "class",
  "1890": "ural",
  "1891": "bers",
  "1892": "MA",
  "1893": "ession",
  "1894": "\u2581\u041c",
  "1895": "Info",
  "1896": "\u2581Br",
  "1897": "\u2581eas",
  "1898": "ervice",
  "1899": "aus",
  "1900": "ari",
  "1901": "\u043f\u043e",
  "1902": "\u2581coun",
  "1903": "\u0434\u0435",
  "1904": "())",
  "1905": "ling",
  "1906": "ED",
  "1907": "ably",
  "1908": "\u2581pat",
  "1909": "org",
  "1910": "\u2581id",
  "1911": "\u2581\u0433",
  "1912": "\u2581tell",
  "1913": "lex",
  "1914": "\u2581allow",
  "1915": "reen",
  "1916": "my",
  "1917": "\u2581consider",
  "1918": "\u2581team",
  "1919": "lease",
  "1920": "htt",
  "1921": "\u2581Pr",
  "1922": "/**",
  "1923": "\u2581sing",
  "1924": "Requ",
  "1925": "Re",
  "1926": "ides",
  "1927": "ches",
  "1928": "\u2581object",
  "1929": "ially",
  "1930": "By",
  "1931": "\u0441\u044f",
  "1932": "ided",
  "1933": "\u2581free",
  "1934": "\u2581proble",
  "1935": "cite",
  "1936": "\u2581);",
  "1937": "ission",
  "1938": "\u2581during",
  "1939": "\u2581--",
  "1940": "ither",
  "1941": "\u043b\u044f",
  "1942": "\u2581leg",
  "1943": "\u2581sit",
  "1944": "ically",
  "1945": "\u2581key",
  "1946": "leg",
  "1947": "tra",
  "1948": "\u2581mom",
  "1949": "\u2581expl",
  "1950": "\u2581develop",
  "1951": "\u2581event",
  "1952": "\u2581NULL",
  "1953": "ohn",
  "1954": "\u2581///",
  "1955": "\u2581business",
  "1956": "\u0447\u0430",
  "1957": "\u2581prof",
  "1958": "error",
  "1959": "\u2581por",
  "1960": "\u2581commun",
  "1961": "Ind",
  "1962": "ium",
  "1963": "Test",
  "1964": "\u2581Ad",
  "1965": "ouble",
  "1966": "\u2581son",
  "1967": "rite",
  "1968": "ready",
  "1969": "\u2581{\r",
  "1970": "\u2581thing",
  "1971": "\u043d\u044f",
  "1972": "\u2581Ph",
  "1973": "ped",
  "1974": "\u0441\u044c",
  "1975": "ived",
  "1976": "You",
  "1977": "arl",
  "1978": "const",
  "1979": "../",
  "1980": "Se",
  "1981": "Sh",
  "1982": "\u2581power",
  "1983": "ribute",
  "1984": "\u2581My",
  "1985": "\u2581talk",
  "1986": "itch",
  "1987": "\u2581called",
  "1988": "\u2581came",
  "1989": "\u2581belie",
  "1990": "UR",
  "1991": "Add",
  "1992": "\u2581Res",
  "1993": "aster",
  "1994": "ella",
  "1995": "obal",
  "1996": "\u2581until",
  "1997": "\u2581hum",
  "1998": "CO",
  "1999": "ately",
  "2000": "####",
  "2001": "public",
  "2002": "[]",
  "2003": "\u2581room",
  "2004": "len",
  "2005": "\u2581family",
  "2006": "por",
  "2007": "\u2581program",
  "2008": "\u2581hist",
  "2009": "\u2581mus",
  "2010": "arge",
  "2011": "oney",
  "2012": "Im",
  "2013": "else",
  "2014": "ails",
  "2015": "af",
  "2016": "\u2581love",
  "2017": "\u00e4r",
  "2018": "ases",
  "2019": "pha",
  "2020": "ours",
  "2021": "dis",
  "2022": "map",
  "2023": "iver",
  "2024": "\u00f6r",
  "2025": "\u2581Bl",
  "2026": "ateg",
  "2027": "state",
  "2028": "State",
  "2029": "ertain",
  "2030": "\u2581effect",
  "2031": "print",
  "2032": "\u2581big",
  "2033": "index",
  "2034": "\u2581pub",
  "2035": "vert",
  "2036": "ero",
  "2037": "md",
  "2038": "\u2581method",
  "2039": "\u2581game",
  "2040": "ries",
  "2041": "lete",
  "2042": "Item",
  "2043": "ING",
  "2044": "resent",
  "2045": "ality",
  "2046": "pty",
  "2047": "ley",
  "2048": "ocument",
  "2049": "\u2581beg",
  "2050": "TR",
  "2051": "}.",
  "2052": "\u2581school",
  "2053": "hes",
  "2054": "\u0434\u043e",
  "2055": "\u2581lot",
  "2056": "\u2581took",
  "2057": "\u2581adv",
  "2058": "\u2581cap",
  "2059": "MP",
  "2060": "unk",
  "2061": "\u2581light",
  "2062": "\u2581later",
  "2063": ".,",
  "2064": "Key",
  "2065": "itions",
  "2066": "\u2581enough",
  "2067": "\u2581/**",
  "2068": "\u2581went",
  "2069": "\u00e3o",
  "2070": "\u2581though",
  "2071": "\u2581group",
  "2072": "\u2581mean",
  "2073": "\u0441\u043a\u0438",
  "2074": "AP",
  "2075": "\u2581num",
  "2076": "\u2581cond",
  "2077": "\u043d\u0456",
  "2078": "\u2581given",
  "2079": "\u2581why",
  "2080": "\u2581rece",
  "2081": "\u2581side",
  "2082": "\u2581far",
  "2083": "Context",
  "2084": "\u043c\u0435",
  "2085": "\u2581log",
  "2086": "View",
  "2087": "\u2581<<",
  "2088": "fil",
  "2089": "aces",
  "2090": "ency",
  "2091": "oad",
  "2092": "ered",
  "2093": "\u2581product",
  "2094": "ET",
  "2095": "\u2581param",
  "2096": "\u2581prote",
  "2097": "tes",
  "2098": "Time",
  "2099": "je",
  "2100": "olution",
  "2101": "\u2581\u0440\u0430",
  "2102": "\u2581month",
  "2103": "ference",
  "2104": "\u2581appe",
  "2105": "\u2581face",
  "2106": "ened",
  "2107": "tract",
  "2108": "\u2581less",
  "2109": "AS",
  "2110": "\u00e9e",
  "2111": "\u2581give",
  "2112": "\u2581kind",
  "2113": "\u2581count",
  "2114": "count",
  "2115": "\u2581stop",
  "2116": "\u2581gover",
  "2117": "ka",
  "2118": "\u2581error",
  "2119": "ences",
  "2120": "\u2581mil",
  "2121": "alf",
  "2122": "ync",
  "2123": "vious",
  "2124": "ho",
  "2125": "\u2581night",
  "2126": "era",
  "2127": "\u2581\u043f\u0440\u043e",
  "2128": "\u2581sol",
  "2129": "men",
  "2130": "\u2581water",
  "2131": "ering",
  "2132": "\u2581lim",
  "2133": "Param",
  "2134": "\u2581house",
  "2135": "\u2581System",
  "2136": "\u2581pay",
  "2137": "\u2581:=",
  "2138": "uro",
  "2139": "oci",
  "2140": "zy",
  "2141": "\u2581already",
  "2142": ",\\",
  "2143": "length",
  "2144": "\u2581si",
  "2145": "\u2581interest",
  "2146": "aff",
  "2147": "cted",
  "2148": "ention",
  "2149": "\u2581\u0434\u043e",
  "2150": "ume",
  "2151": "\u2581appro",
  "2152": "bre",
  "2153": "IG",
  "2154": "\u2581throw",
  "2155": "mathcal",
  "2156": "irl",
  "2157": "\u2581prom",
  "2158": "oss",
  "2159": "\u2581request",
  "2160": "equation",
  "2161": "ology",
  "2162": "mit",
  "2163": "\u2581pack",
  "2164": "ino",
  "2165": "array",
  "2166": "za",
  "2167": "til",
  "2168": "UN",
  "2169": "\u2581present",
  "2170": "\u2581organ",
  "2171": "File",
  "2172": "\u2581orig",
  "2173": "\u2581full",
  "2174": "istr",
  "2175": "\u2581flo",
  "2176": "hr",
  "2177": "\u2581assert",
  "2178": "ards",
  "2179": "url",
  "2180": "enn",
  "2181": "sl",
  "2182": "\u2581\u0410",
  "2183": "\u2581cho",
  "2184": "\u2581level",
  "2185": "OT",
  "2186": "word",
  "2187": "\u2581body",
  "2188": "\u2581user",
  "2189": "\u00eda",
  "2190": "Qu",
  "2191": "\u2581main",
  "2192": "AB",
  "2193": "ploy",
  "2194": "Event",
  "2195": "\u2581super",
  "2196": "oken",
  "2197": "\u2581\u041d",
  "2198": "As",
  "2199": "thers",
  "2200": "\u043c\u043e",
  "2201": "\u043a\u0443",
  "2202": "\u2581days",
  "2203": "\u2581done",
  "2204": "\u2581view",
  "2205": "side",
  "2206": "\u0441\u0438",
  "2207": "');",
  "2208": "\u2581vol",
  "2209": "\u2581tot",
  "2210": "case",
  "2211": "\u2581aff",
  "2212": "Request",
  "2213": "\u2581Man",
  "2214": "\\\\",
  "2215": "\u2581John",
  "2216": "\u2581\u0411",
  "2217": "orth",
  "2218": "\u2581je",
  "2219": "\u2581une",
  "2220": "la",
  "2221": "[\"",
  "2222": "field",
  "2223": "\u2581US",
  "2224": "ico",
  "2225": "\u2581perform",
  "2226": "ailable",
  "2227": "Config",
  "2228": "Or",
  "2229": "\u2581model",
  "2230": "ales",
  "2231": "\u2581create",
  "2232": "\u2581ann",
  "2233": "ances",
  "2234": "IL",
  "2235": "ination",
  "2236": "\u2581Im",
  "2237": "ante",
  "2238": "ana",
  "2239": "\u0430\u043d",
  "2240": "\u2581told",
  "2241": "config",
  "2242": "\"]",
  "2243": "met",
  "2244": "lt",
  "2245": "\u2581text",
  "2246": "\u2581May",
  "2247": "\u2581org",
  "2248": "\u2581port",
  "2249": "Pl",
  "2250": "ently",
  "2251": "\u2581door",
  "2252": "US",
  "2253": "\u2581(*",
  "2254": "kt",
  "2255": "ES",
  "2256": "ential",
  "2257": "\u2581iss",
  "2258": "\u2581inc",
  "2259": "Node",
  "2260": "ively",
  "2261": "\u2581asked",
  "2262": "irt",
  "2263": "\u2581Te",
  "2264": "\u2581report",
  "2265": "\u2581chang",
  "2266": "\u0441\u0442\u0438",
  "2267": "\u2581along",
  "2268": "\u2581change",
  "2269": "Size",
  "2270": "\u2581ever",
  "2271": "\u2581occ",
  "2272": "ury",
  "2273": "\u2581mind",
  "2274": "order",
  "2275": "point",
  "2276": "\u0441\u0442\u043e",
  "2277": "\u2581whe",
  "2278": "\u2581important",
  "2279": "des",
  "2280": "\u2581Not",
  "2281": "\u2581writ",
  "2282": "\u2581eyes",
  "2283": "\u2581desc",
  "2284": "most",
  "2285": "ks",
  "2286": "\u2581bit",
  "2287": "\u2581\u2581\u2581",
  "2288": "\u2581success",
  "2289": "\u0442\u044c",
  "2290": "\u0431\u043e",
  "2291": "core",
  "2292": "}(",
  "2293": "\u2581array",
  "2294": "lin",
  "2295": "lish",
  "2296": "\u2581following",
  "2297": "Field",
  "2298": "ids",
  "2299": "hing",
  "2300": "\u2581cal",
  "2301": "Is",
  "2302": "aring",
  "2303": "lev",
  "2304": "alt",
  "2305": "CH",
  "2306": "\u2581d\u00e9",
  "2307": "alpha",
  "2308": "\u2581four",
  "2309": "\u2581law",
  "2310": "\u2581\u0441\u0435",
  "2311": "iron",
  "2312": "\u2581disc",
  "2313": "\u0441\u0435",
  "2314": "ken",
  "2315": "node",
  "2316": "\u2581Par",
  "2317": "\u2581Eng",
  "2318": "\u2581move",
  "2319": "\u2581License",
  "2320": "cul",
  "2321": "ione",
  "2322": ")$",
  "2323": "\u2581tw",
  "2324": "We",
  "2325": "sel",
  "2326": "\u2581With",
  "2327": "\u2581once",
  "2328": "Service",
  "2329": "bol",
  "2330": "ured",
  "2331": "ida",
  "2332": "\u2581Qu",
  "2333": "\u2581grow",
  "2334": "\u2581conne",
  "2335": "EX",
  "2336": "\u2581htt",
  "2337": "\u2581};",
  "2338": "\u2581walk",
  "2339": "\u2581init",
  "2340": "nal",
  "2341": "ender",
  "2342": "cription",
  "2343": "mber",
  "2344": "lected",
  "2345": "po",
  "2346": "\u2581nil",
  "2347": "\u2581prob",
  "2348": "\u0447\u0438",
  "2349": "\u2581Ste",
  "2350": "ison",
  "2351": "ands",
  "2352": "osed",
  "2353": "\u0436\u0435",
  "2354": "\u2581His",
  "2355": "\u00fcr",
  "2356": "Man",
  "2357": "Element",
  "2358": "\u2581able",
  "2359": "Index",
  "2360": "search",
  "2361": "\u2581mag",
  "2362": "\u0430\u0440",
  "2363": "\u2581course",
  "2364": "\u2581Car",
  "2365": "\u2581exp",
  "2366": "aph",
  "2367": "\u2581mit",
  "2368": "\u2581doesn",
  "2369": "\u2581default",
  "2370": "/>",
  "2371": "aim",
  "2372": "\u2581service",
  "2373": "\u2581within",
  "2374": "angu",
  "2375": "\u2581\u0414",
  "2376": "uffer",
  "2377": "AG",
  "2378": "\u2581Do",
  "2379": "\u2581incre",
  "2380": "\u2581understand",
  "2381": "}^",
  "2382": "\u2581looked",
  "2383": "gen",
  "2384": "ailed",
  "2385": "\u2581\u0435",
  "2386": "ayer",
  "2387": "\u2581One",
  "2388": "\u2581bas",
  "2389": "\u2581job",
  "2390": "mu",
  "2391": "but",
  "2392": "elta",
  "2393": "\u2581Christ",
  "2394": "uration",
  "2395": "\u2581record",
  "2396": "\u2581Univers",
  "2397": "ivid",
  "2398": "valid",
  "2399": "\u2581\u0420",
  "2400": "\u2581hold",
  "2401": "\u2581table",
  "2402": "ones",
  "2403": "link",
  "2404": "\u2581Ge",
  "2405": "\u2581offer",
  "2406": "ster",
  "2407": "Form",
  "2408": "={",
  "2409": "\u2581\u043d\u0435",
  "2410": "stance",
  "2411": "\u2581govern",
  "2412": "\u2581techn",
  "2413": "\u2581prim",
  "2414": "*.",
  "2415": "cho",
  "2416": "max",
  "2417": "\u2581fore",
  "2418": "\u2581Can",
  "2419": "\u2581polit",
  "2420": "ories",
  "2421": "\u2581times",
  "2422": "\u2581dans",
  "2423": "\u2581air",
  "2424": "\u2581anything",
  "2425": "\u2581sever",
  "2426": "acy",
  "2427": "}_",
  "2428": "He",
  "2429": "\u2581least",
  "2430": "ips",
  "2431": "ENT",
  "2432": "do",
  "2433": "\u2581\u043e\u0442",
  "2434": "\u2581cost",
  "2435": ".\u201d",
  "2436": "\u2581children",
  "2437": "ability",
  "2438": "But",
  "2439": "\u2581path",
  "2440": "result",
  "2441": "acter",
  "2442": "\u2581element",
  "2443": "ee",
  "2444": "\u2581wait",
  "2445": "\u2581money",
  "2446": "Map",
  "2447": "td",
  "2448": "oin",
  "2449": "iving",
  "2450": "icht",
  "2451": "icy",
  "2452": "sch",
  "2453": "ste",
  "2454": "\u0434\u0443",
  "2455": "ored",
  "2456": "oud",
  "2457": "ille",
  "2458": "ised",
  "2459": "plication",
  "2460": "\u2581custom",
  "2461": "\u2581having",
  "2462": "ponent",
  "2463": "\u2581By",
  "2464": "ules",
  "2465": "ued",
  "2466": "atter",
  "2467": "And",
  "2468": "itive",
  "2469": "Def",
  "2470": "\u2581moment",
  "2471": "aterial",
  "2472": "Class",
  "2473": "ograph",
  "2474": "ike",
  "2475": "\u2581large",
  "2476": "\u2581####",
  "2477": "\u2581either",
  "2478": "duct",
  "2479": "\u2581Then",
  "2480": "\u2581Gu",
  "2481": "olean",
  "2482": "pert",
  "2483": "\u2581Get",
  "2484": "\u2581Ab",
  "2485": "\u2581short",
  "2486": "On",
  "2487": "iment",
  "2488": "\u2581project",
  "2489": "cript",
  "2490": "\u2581including",
  "2491": "\u043d\u0438\u044f",
  "2492": "\u2581making",
  "2493": "\u2581someone",
  "2494": "\u2581Fl",
  "2495": "\u2581sat",
  "2496": "\u2581company",
  "2497": "ocus",
  "2498": "pu",
  "2499": "\u2581God",
  "2500": "ification",
  "2501": "No",
  "2502": "\u2581sn",
  "2503": "ano",
  "2504": "ga",
  "2505": "\u2581au",
  "2506": "\u2581cou",
  "2507": "\u00e1s",
  "2508": "ended",
  "2509": "\u0442\u0443",
  "2510": "ober",
  "2511": "\u2581nothing",
  "2512": "\u2581net",
  "2513": "\u2581pot",
  "2514": "\u2581typ",
  "2515": "\u2581item",
  "2516": "rew",
  "2517": "Att",
  "2518": "\u2581young",
  "2519": "}\r",
  "2520": "nder",
  "2521": "start",
  "2522": "\u2581Sc",
  "2523": "*)",
  "2524": "\u2581enc",
  "2525": "\u2581women",
  "2526": "\u2581looking",
  "2527": "\u2581\u0440\u043e",
  "2528": "\u2581health",
  "2529": "Path",
  "2530": "\u2581After",
  "2531": "\u2581mult",
  "2532": "\u2581{\\",
  "2533": "\u2581land",
  "2534": "orld",
  "2535": "\u2581Des",
  "2536": "\u2581eng",
  "2537": "input",
  "2538": "\u2581Pol",
  "2539": "\"\"",
  "2540": "Code",
  "2541": "\u2581supp",
  "2542": "ainer",
  "2543": "heck",
  "2544": "\u2581mor",
  "2545": "\u2581mill",
  "2546": "\u2581aw",
  "2547": "fs",
  "2548": "\u2581doing",
  "2549": "tings",
  "2550": "ades",
  "2551": "\u2581toget",
  "2552": "\u2581certain",
  "2553": "\u2581together",
  "2554": "CE",
  "2555": "ideo",
  "2556": "\u2581American",
  "2557": "ony",
  "2558": "idd",
  "2559": "II",
  "2560": "ged",
  "2561": "ables",
  "2562": "\u2581ident",
  "2563": "iod",
  "2564": "\u2581parent",
  "2565": "For",
  "2566": "ambda",
  "2567": "ando",
  "2568": "=\\",
  "2569": "aged",
  "2570": "ending",
  "2571": "Int",
  "2572": "\u2581possible",
  "2573": "\u2581\u0441\u043e",
  "2574": "ivity",
  "2575": "num",
  "2576": "rt",
  "2577": "ajor",
  "2578": "create",
  "2579": "ride",
  "2580": "\u2581knew",
  "2581": "bit",
  "2582": "itional",
  "2583": "\u2581lik",
  "2584": "\u2581Her",
  "2585": "ension",
  "2586": "\".",
  "2587": "oto",
  "2588": "\u2581exist",
  "2589": "aken",
  "2590": "\u2581actually",
  "2591": "ca",
  "2592": "\u2581\u0413",
  "2593": "\u0445\u043e",
  "2594": "inn",
  "2595": "All",
  "2596": "buf",
  "2597": "\u2581Me",
  "2598": "\u2581seen",
  "2599": "ops",
  "2600": "\u2581\u2581\u2581\u2581\u2581\u2581\u2581\u2581\u2581",
  "2601": "Not",
  "2602": "\u2581control",
  "2603": "\u2581respon",
  "2604": "};",
  "2605": "ilt",
  "2606": "isk",
  "2607": "\u2581bad",
  "2608": "\u2581often",
  "2609": "\u2581past",
  "2610": "aper",
  "2611": "\u2581reason",
  "2612": "eters",
  "2613": "\u2581wanted",
  "2614": "ura",
  "2615": "table",
  "2616": "ormal",
  "2617": "width",
  "2618": "\u0433\u0430",
  "2619": "ptr",
  "2620": "\u2581dest",
  "2621": "\u2581design",
  "2622": "\u2581sound",
  "2623": "\u2581plan",
  "2624": "\u2581base",
  "2625": "hand",
  "2626": "gs",
  "2627": "\u2581says",
  "2628": "function",
  "2629": "\u2581tri",
  "2630": "mt",
  "2631": "\u2581invest",
  "2632": "\u2581available",
  "2633": "ayout",
  "2634": "\u2581och",
  "2635": "\u2581las",
  "2636": "illed",
  "2637": "Val",
  "2638": "\u2581\u0444",
  "2639": "iety",
  "2640": "mon",
  "2641": "Hand",
  "2642": "Fr",
  "2643": "iam",
  "2644": "pace",
  "2645": "\u2581Ob",
  "2646": "\u2581para",
  "2647": "\u2581meet",
  "2648": "\u2581sum",
  "2649": "Message",
  "2650": "ici",
  "2651": "\u2581known",
  "2652": "\u2581gen",
  "2653": "amma",
  "2654": "arr",
  "2655": "\u2581tre",
  "2656": "oke",
  "2657": "uth",
  "2658": "~\\",
  "2659": "\u2581experience",
  "2660": "icle",
  "2661": "\u2581Il",
  "2662": "\u2581sent",
  "2663": "\u2581others",
  "2664": "\u2581soft",
  "2665": "IP",
  "2666": "\u2581max",
  "2667": "ball",
  "2668": "\u2581market",
  "2669": "\u2581pour",
  "2670": "pression",
  "2671": "eps",
  "2672": "\u2581saw",
  "2673": "\u2581across",
  "2674": "\u2581Su",
  "2675": "Over",
  "2676": "\u043d\u0438\u0435",
  "2677": "ulation",
  "2678": "\u2581Reg",
  "2679": "\u2581+=",
  "2680": "body",
  "2681": ")\\",
  "2682": "\u2581print",
  "2683": "\u2581\u043f\u0440\u0438",
  "2684": "db",
  "2685": "ources",
  "2686": "wards",
  "2687": "\u2581black",
  "2688": "\u0441\u043e",
  "2689": "ili",
  "2690": "\u2581Ed",
  "2691": "\u2581complet",
  "2692": "\u2581single",
  "2693": "\u2581IN",
  "2694": "ached",
  "2695": "bt",
  "2696": "\u2581code",
  "2697": "\u2581bool",
  "2698": "\u2581area",
  "2699": "\u2581require",
  "2700": "\u2581problem",
  "2701": "aced",
  "2702": "Equ",
  "2703": "\u2581config",
  "2704": "vec",
  "2705": "ney",
  "2706": "cy",
  "2707": "Al",
  "2708": "\u2581account",
  "2709": "ymbol",
  "2710": "\u2581ste",
  "2711": "ges",
  "2712": "Array",
  "2713": "empl",
  "2714": "context",
  "2715": "Des",
  "2716": "Result",
  "2717": "ecut",
  "2718": "\u2581target",
  "2719": "\u2581getting",
  "2720": "\"/>",
  "2721": "ogle",
  "2722": "\u2581himself",
  "2723": "\u2581wasn",
  "2724": "\u2581block",
  "2725": "\u2581ant",
  "2726": "\u2581York",
  "2727": "\u2581become",
  "2728": "iff",
  "2729": "ports",
  "2730": "reate",
  "2731": "='",
  "2732": "cd",
  "2733": "location",
  "2734": "\u0435\u0442",
  "2735": "\u2581access",
  "2736": "gress",
  "2737": "ros",
  "2738": "Up",
  "2739": "\u2581working",
  "2740": "\u2581Am",
  "2741": "iqu",
  "2742": "cer",
  "2743": "\u2581((",
  "2744": "\u2581Per",
  "2745": "\u2581func",
  "2746": "\u2581girl",
  "2747": "\u2581above",
  "2748": "pen",
  "2749": "\u043f\u0438",
  "2750": "ido",
  "2751": "\u2581version",
  "2752": "TY",
  "2753": "\u2581;",
  "2754": "mary",
  "2755": "abled",
  "2756": "annel",
  "2757": "\u2581example",
  "2758": "\u2581context",
  "2759": "OP",
  "2760": "\u2581red",
  "2761": "\u2581cir",
  "2762": "sm",
  "2763": "Log",
  "2764": "\u2581space",
  "2765": "\u2581fut",
  "2766": "\u2581Gener",
  "2767": "ills",
  "2768": "\u2581dri",
  "2769": "_.",
  "2770": "\u2581felt",
  "2771": "\u2581offic",
  "2772": "\u2581===",
  "2773": "ii",
  "2774": "\u2581started",
  "2775": "\u2581\u0422",
  "2776": "\u2581});",
  "2777": "js",
  "2778": "\u2581front",
  "2779": "\u2581almost",
  "2780": "irm",
  "2781": "!\"",
  "2782": "signed",
  "2783": "\u2581yet",
  "2784": "\u2581trad",
  "2785": "ients",
  "2786": "ama",
  "2787": "\u2581input",
  "2788": "lim",
  "2789": "\u043f\u0430",
  "2790": "\u2581\u043a\u0430",
  "2791": "\u2581camp",
  "2792": "ibr",
  "2793": "fect",
  "2794": "unt",
  "2795": "\u2581half",
  "2796": "\u2581cover",
  "2797": "anguage",
  "2798": "\u2581ben",
  "2799": "ha",
  "2800": "\u2581diff",
  "2801": "_\\",
  "2802": "\u2581\u043e\u0431",
  "2803": "])",
  "2804": "odes",
  "2805": "hel",
  "2806": "ios",
  "2807": "\u2581\u041e",
  "2808": "\u2581mot",
  "2809": "\u2581social",
  "2810": "////////",
  "2811": "\u2581stre",
  "2812": "ground",
  "2813": "\u0456\u0432",
  "2814": "object",
  "2815": "ples",
  "2816": "reed",
  "2817": "\u2581een",
  "2818": "\u2581based",
  "2819": "\u2581range",
  "2820": "An",
  "2821": "urg",
  "2822": "\u2581learn",
  "2823": "\u2581exc",
  "2824": "\u2581imp",
  "2825": "\u2581means",
  "2826": "\u2581wur",
  "2827": "ends",
  "2828": "void",
  "2829": "\u2581std",
  "2830": "\u2581particular",
  "2831": "ja",
  "2832": "\u2581source",
  "2833": "default",
  "2834": "py",
  "2835": "\u2581als",
  "2836": "scri",
  "2837": "status",
  "2838": "\u2581story",
  "2839": "\u2581begin",
  "2840": "\u2581position",
  "2841": "\u2581special",
  "2842": "php",
  "2843": "\u2581bar",
  "2844": "\u2581pract",
  "2845": "call",
  "2846": "\u2581das",
  "2847": "\u2581rad",
  "2848": "\u2581close",
  "2849": "www",
  "2850": "\u0435\u0440\u0435",
  "2851": "gu",
  "2852": "\u2581Er",
  "2853": "\u2581dom",
  "2854": "AM",
  "2855": "\u2581bed",
  "2856": "\u2581several",
  "2857": "aul",
  "2858": "box",
  "2859": "\u2581low",
  "2860": "pack",
  "2861": "Reg",
  "2862": "Of",
  "2863": "atures",
  "2864": "\u00e9n",
  "2865": "eder",
  "2866": "uilder",
  "2867": "cast",
  "2868": "conom",
  "2869": "raft",
  "2870": "\u2581makes",
  "2871": "Loc",
  "2872": "http",
  "2873": "\u2581abs",
  "2874": "resh",
  "2875": "\u2581Will",
  "2876": "break",
  "2877": "\u2581options",
  "2878": "fort",
  "2879": "\u2581\u0438\u0437",
  "2880": "\u2581anal",
  "2881": "\u2581env",
  "2882": "({",
  "2883": "event",
  "2884": "\u2581page",
  "2885": "ternal",
  "2886": "\u2581distribut",
  "2887": "\u2581food",
  "2888": "check",
  "2889": "CK",
  "2890": "\u2581\u0432\u043e",
  "2891": "assert",
  "2892": "\u00e1n",
  "2893": "base",
  "2894": "\u2581whole",
  "2895": "aci\u00f3n",
  "2896": "OD",
  "2897": "\u2581turned",
  "2898": "igma",
  "2899": "\u2581response",
  "2900": "\u2581University",
  "2901": "\u2581div",
  "2902": "apter",
  "2903": "\u2581results",
  "2904": "\u2581represent",
  "2905": "\u2581everything",
  "2906": "\u2581Cent",
  "2907": "utes",
  "2908": "rix",
  "2909": "\u2581Some",
  "2910": "\u2581behind",
  "2911": "\u2581creat",
  "2912": "place",
  "2913": "su",
  "2914": "\u2581Part",
  "2915": "umb",
  "2916": "mathbb",
  "2917": "ping",
  "2918": "\u2581match",
  "2919": "Out",
  "2920": "dom",
  "2921": "\u2581situ",
  "2922": "dr",
  "2923": "ara",
  "2924": "\u2581window",
  "2925": "ns",
  "2926": "lished",
  "2927": "\u2581Ver",
  "2928": "\u2581message",
  "2929": "\u2581Em",
  "2930": "\u2581human",
  "2931": "perties",
  "2932": "\u043b\u0443",
  "2933": "lem",
  "2934": "ORT",
  "2935": "\u2581early",
  "2936": "\u2581quick",
  "2937": "\u2581\u0442\u0430",
  "2938": "roid",
  "2939": "\u2581country",
  "2940": "\u2581due",
  "2941": "\u2581Die",
  "2942": "\u2581trying",
  "2943": "\u2581live",
  "2944": "\u2581press",
  "2945": "INT",
  "2946": "With",
  "2947": "oved",
  "2948": "\u2581specific",
  "2949": "\u2581fall",
  "2950": "uk",
  "2951": "yl",
  "2952": "\u2581general",
  "2953": "\u043c\u0443",
  "2954": "\u043d\u0443",
  "2955": "\u2581names",
  "2956": "where",
  "2957": "\u2581These",
  "2958": "\u2581sil",
  "2959": "\u00e9t",
  "2960": "\u2581ener",
  "2961": "\u2581Now",
  "2962": "\u2581address",
  "2963": "Response",
  "2964": "\u2581Mr",
  "2965": "\u2581answ",
  "2966": "\u2581film",
  "2967": "\u2581strong",
  "2968": "\u2581bring",
  "2969": "\u2581United",
  "2970": "\u2581ge",
  "2971": "\u2581woman",
  "2972": "New",
  "2973": "ett",
  "2974": ".)",
  "2975": "ename",
  "2976": "\u2581AN",
  "2977": "\u2581describ",
  "2978": "\u0437\u0430",
  "2979": "ising",
  "2980": "EL",
  "2981": "ql",
  "2982": "\u2581fur",
  "2983": "ying",
  "2984": "\u2581Cal",
  "2985": "\u2581Dr",
  "2986": "ERR",
  "2987": "\u2581\\\\",
  "2988": "angle",
  "2989": "urope",
  "2990": "\u2581city",
  "2991": "\u2581index",
  "2992": "\u2581action",
  "2993": "\u2581However",
  "2994": "\u2581fig",
  "2995": "ias",
  "2996": "\u2581question",
  "2997": "\u2581Jan",
  "2998": "\u2581Med",
  "2999": "\u2581Cont",
  "3000": "amed",
  "3001": "Call",
  "3002": "plied",
  "3003": "tty",
  "3004": "\u2581individ",
  "3005": "page",
  "3006": "\u2581comb",
  "3007": "section",
  "3008": "\u2581Comm",
  "3009": "uel",
  "3010": "\u2581het",
  "3011": "\u2581Bar",
  "3012": "agement",
  "3013": "fin",
  "3014": "\u2581major",
  "3015": "oper",
  "3016": "api",
  "3017": "room",
  "3018": "\u2581\u201e",
  "3019": "\u2581hab",
  "3020": "\u0437\u0438",
  "3021": "\u2581auf",
  "3022": "current",
  "3023": "ni",
  "3024": "\u2581include",
  "3025": "\u2581qui",
  "3026": "va",
  "3027": "UE",
  "3028": "\u2581idea",
  "3029": ",'",
  "3030": "\u2581required",
  "3031": "\u2581heart",
  "3032": "ibility",
  "3033": "iction",
  "3034": "Model",
  "3035": "write",
  "3036": "\u2581content",
  "3037": "\u2581wer",
  "3038": "\u2581hands",
  "3039": "zen",
  "3040": "char",
  "3041": "}^{",
  "3042": "\u2581mass",
  "3043": "ply",
  "3044": "\u2581nat",
  "3045": "rel",
  "3046": "\u2581dat",
  "3047": "================",
  "3048": "imal",
  "3049": "\u2581probably",
  "3050": "unch",
  "3051": "\u2581mer",
  "3052": "ilar",
  "3053": "ires",
  "3054": "\u2581watch",
  "3055": "SI",
  "3056": "\u2581cult",
  "3057": "\u2581mother",
  "3058": "\u2581government",
  "3059": "ording",
  "3060": "\u2581()",
  "3061": "\u2581pri",
  "3062": "\u2581link",
  "3063": "group",
  "3064": "OL",
  "3065": "\u2581near",
  "3066": "\u2581Ser",
  "3067": "Ser",
  "3068": "ito",
  "3069": "\u2581values",
  "3070": "\u2581java",
  "3071": "fully",
  "3072": "Count",
  "3073": "++)",
  "3074": "\u2581vi",
  "3075": "\u2581white",
  "3076": "mat",
  "3077": "ctx",
  "3078": "\u2581conc",
  "3079": "\u2581stay",
  "3080": "ging",
  "3081": "\u2581clear",
  "3082": "\u2581copy",
  "3083": "selves",
  "3084": "\u2581provide",
  "3085": "\u2581words",
  "3086": "comp",
  "3087": "args",
  "3088": "\u2581pick",
  "3089": "uly",
  "3090": "\u2581vari",
  "3091": "\u2581believe",
  "3092": "\u2581Co",
  "3093": "Property",
  "3094": "Group",
  "3095": "\u2581ten",
  "3096": "ischen",
  "3097": "eturn",
  "3098": "ival",
  "3099": "System",
  "3100": "CL",
  "3101": "bed",
  "3102": "\u2581total",
  "3103": "\u2581ist",
  "3104": "Input",
  "3105": "uments",
  "3106": "Manager",
  "3107": "\u0448\u0438",
  "3108": "\u2581win",
  "3109": "leep",
  "3110": "PI",
  "3111": "\u043d\u043e\u0433\u043e",
  "3112": "ruction",
  "3113": "\u2581inte",
  "3114": "App",
  "3115": "avor",
  "3116": "\u2581respect",
  "3117": "ators",
  "3118": "\u2581como",
  "3119": "\u2581cut",
  "3120": "FA",
  "3121": "\u2581sus",
  "3122": "\u2581App",
  "3123": "rect",
  "3124": "FI",
  "3125": "\u2581began",
  "3126": "oph",
  "3127": "\u2581sort",
  "3128": "though",
  "3129": "\u0458\u0435",
  "3130": "icro",
  "3131": "Trans",
  "3132": "\u043b\u0456",
  "3133": "\u2581Inst",
  "3134": "request",
  "3135": "\u043e\u0440",
  "3136": "\u2581relations",
  "3137": "-\\",
  "3138": "Status",
  "3139": "\u0436\u0438",
  "3140": "\u2581father",
  "3141": "cs",
  "3142": "\u2581sex",
  "3143": "isch",
  "3144": "vo",
  "3145": "}_{",
  "3146": "aven",
  "3147": "\u2581Ne",
  "3148": "ATE",
  "3149": "itten",
  "3150": "\u2581ess",
  "3151": "TH",
  "3152": "ights",
  "3153": "\u2581hom",
  "3154": "\u2581today",
  "3155": "\u2581zu",
  "3156": "ita",
  "3157": "\u2581isn",
  "3158": "\u2581opt",
  "3159": "ogn",
  "3160": "\u00e9r",
  "3161": "\u2581whether",
  "3162": "ixed",
  "3163": "phi",
  "3164": "idence",
  "3165": "ald",
  "3166": "Client",
  "3167": "At",
  "3168": "\u2581death",
  "3169": "\u2581Let",
  "3170": "ius",
  "3171": "\u0433\u0438",
  "3172": "\u2581\u0440\u0435",
  "3173": "ben",
  "3174": ")\r",
  "3175": "ba",
  "3176": "></",
  "3177": "avel",
  "3178": "\u2581miss",
  "3179": "\u2581node",
  "3180": "\u2581($",
  "3181": "\u2581color",
  "3182": "\u2581obt",
  "3183": "tot",
  "3184": "\u2581\u043f\u0440\u0435",
  "3185": "CON",
  "3186": "ette",
  "3187": "\u2581Go",
  "3188": "Fl",
  "3189": "\u2581Don",
  "3190": "\u2581crit",
  "3191": "\u2581ri",
  "3192": "post",
  "3193": "\u2581->",
  "3194": "\u2581Just",
  "3195": "What",
  "3196": "atal",
  "3197": "\u2581Min",
  "3198": "\u2581Cor",
  "3199": "\u2581dark",
  "3200": "rl",
  "3201": "\u2581larg",
  "3202": "ding",
  "3203": "\u00f3n",
  "3204": "ouch",
  "3205": "\u2581um",
  "3206": "\u2581elect",
  "3207": "\u2581dam",
  "3208": "\u2581needs",
  "3209": "\u2581matter",
  "3210": "\u2581rather",
  "3211": "from",
  "3212": "ram",
  "3213": "\u2581\u0456",
  "3214": "\u2581taken",
  "3215": "\u2581deal",
  "3216": "\u2581period",
  "3217": "\u2581Mon",
  "3218": "\u2581\u041b",
  "3219": "\u2581Aug",
  "3220": "run",
  "3221": "mm",
  "3222": "elle",
  "3223": "\u2581export",
  "3224": "Sc",
  "3225": "vis",
  "3226": "abor",
  "3227": "\u2581author",
  "3228": "\u00e8re",
  "3229": "\u2581remember",
  "3230": "\u2581redu",
  "3231": "\u2581List",
  "3232": "\u2581focus",
  "3233": "\u2581character",
  "3234": "Table",
  "3235": "\u2581individual",
  "3236": "\u2581needed",
  "3237": "bum",
  "3238": "\u2581style",
  "3239": "inary",
  "3240": "ersion",
  "3241": "oute",
  "3242": "\u2581Pe",
  "3243": "\u2581hon",
  "3244": "mut",
  "3245": "see",
  "3246": "\u2581became",
  "3247": "\u2581dire",
  "3248": "\u2581document",
  "3249": "sec",
  "3250": "ening",
  "3251": "\u2581visit",
  "3252": "\u2581fac",
  "3253": "tx",
  "3254": "down",
  "3255": "plit",
  "3256": "\u2581phys",
  "3257": "itting",
  "3258": "joy",
  "3259": "\u2581hig",
  "3260": "This",
  "3261": "Ad",
  "3262": "\u2581Brit",
  "3263": "\u2581employ",
  "3264": "\u2581r\u00e9",
  "3265": "\u2581\u0442",
  "3266": "lambda",
  "3267": "\u2581impro",
  "3268": "\u2581Bo",
  "3269": "iding",
  "3270": "\u2581online",
  "3271": "mem",
  "3272": "atform",
  "3273": "\u2581War",
  "3274": "\u2581cas",
  "3275": "asure",
  "3276": "\u2581pur",
  "3277": "medi",
  "3278": "Dis",
  "3279": "\u2581Germ",
  "3280": "pc",
  "3281": "\u0441\u0430",
  "3282": "\u2581friends",
  "3283": "\u2581Mc",
  "3284": "DI",
  "3285": "\u2581plus",
  "3286": "\u2581Set",
  "3287": "iddle",
  "3288": "itut",
  "3289": "\u2581depend",
  "3290": "rest",
  "3291": "\u2581Je",
  "3292": "\u2581hor",
  "3293": "\u2581entire",
  "3294": "Query",
  "3295": "\u2581refer",
  "3296": "\u2581hot",
  "3297": "\u2581Aust",
  "3298": "\u2581common",
  "3299": "\u0446\u0456",
  "3300": "\u2581pull",
  "3301": "\u2581Add",
  "3302": "\u2581season",
  "3303": "\u2581invol",
  "3304": "\u2581World",
  "3305": "client",
  "3306": "now",
  "3307": "true",
  "3308": "append",
  "3309": "itted",
  "3310": "empt",
  "3311": "){",
  "3312": "///",
  "3313": "\u2581prop",
  "3314": "imate",
  "3315": "SC",
  "3316": "\u2581hours",
  "3317": "\u2581hope",
  "3318": "andom",
  "3319": "\u0456\u0434",
  "3320": "istic",
  "3321": "\u2581property",
  "3322": "sg",
  "3323": ">(",
  "3324": "\u2581write",
  "3325": "mark",
  "3326": "find",
  "3327": "\u2581personal",
  "3328": "][",
  "3329": "rown",
  "3330": "Ph",
  "3331": "\u2581foot",
  "3332": "\u2581research",
  "3333": "ironment",
  "3334": "\u2581nom",
  "3335": "\u2581instance",
  "3336": "\u2581held",
  "3337": "De",
  "3338": "\u2581members",
  "3339": "\u2581fire",
  "3340": "\u2581history",
  "3341": "\u2581map",
  "3342": "\u2581discuss",
  "3343": "\u2581espec",
  "3344": "\u2581taking",
  "3345": "\u2581services",
  "3346": "\u2581indust",
  "3347": "igen",
  "3348": "\u2581Ass",
  "3349": "\u2581expected",
  "3350": "\u2581wurde",
  "3351": "dir",
  "3352": "\u2581among",
  "3353": "\u2581sugg",
  "3354": "rec",
  "3355": "Inter",
  "3356": "block",
  "3357": "\u2581Rep",
  "3358": "\u2581pain",
  "3359": "\u2581five",
  "3360": "\u2581fund",
  "3361": "rid",
  "3362": "arrow",
  "3363": "\u2581treat",
  "3364": "\u2581heard",
  "3365": "\u2581determ",
  "3366": "icult",
  "3367": "\u2581sense",
  "3368": "ese",
  "3369": "Fun",
  "3370": "\u2581months",
  "3371": "json",
  "3372": ",\u201d",
  "3373": "TI",
  "3374": "orage",
  "3375": "\u2581\u0423",
  "3376": "\u2581everyone",
  "3377": "\u2581clos",
  "3378": "iers",
  "3379": "airs",
  "3380": "define",
  "3381": "If",
  "3382": "osp",
  "3383": "\u2581wonder",
  "3384": "NA",
  "3385": "query",
  "3386": "pg",
  "3387": "ites",
  "3388": "\u2581material",
  "3389": "yd",
  "3390": "Read",
  "3391": "html",
  "3392": "TE",
  "3393": "Pr",
  "3394": "^{\\",
  "3395": "\u2581gave",
  "3396": "\u2581IS",
  "3397": "\u2581suggest",
  "3398": "Override",
  "3399": "rodu",
  "3400": "From",
  "3401": "\u2581Europe",
  "3402": "PO",
  "3403": "\u2581soon",
  "3404": "host",
  "3405": "\u2581Ber",
  "3406": "....",
  "3407": "\u2581Har",
  "3408": "\u2581energy",
  "3409": "><",
  "3410": "aves",
  "3411": "\u2581easy",
  "3412": "\u2581bre",
  "3413": "frame",
  "3414": "\u2581ground",
  "3415": "with",
  "3416": "\u2581inside",
  "3417": "ief",
  "3418": "\u2581mo",
  "3419": "pm",
  "3420": "pan",
  "3421": "igr",
  "3422": "\u2581om",
  "3423": "next",
  "3424": "omet",
  "3425": "\u2581status",
  "3426": "\u2581}\r",
  "3427": "\u2581music",
  "3428": "ora",
  "3429": "iles",
  "3430": "ki",
  "3431": "\u2581esc",
  "3432": "\u2581bes",
  "3433": "\u2581Dis",
  "3434": "\u2581host",
  "3435": "\u2581comes",
  "3436": "used",
  "3437": "\u2581future",
  "3438": "lick",
  "3439": "aid",
  "3440": "\u2581compet",
  "3441": "\u2581voice",
  "3442": "\u2581load",
  "3443": "evel",
  "3444": "\u2581neg",
  "3445": "\u2581command",
  "3446": "\u2581f\u00fcr",
  "3447": "\u2581pie",
  "3448": "\u2581quite",
  "3449": "\u2581blo",
  "3450": "agn",
  "3451": "ilon",
  "3452": "\u2581claim",
  "3453": "\u2581teach",
  "3454": "\u2581previous",
  "3455": "\u2581site",
  "3456": "color",
  "3457": "attr",
  "3458": "\u2581accept",
  "3459": "\u2581exact",
  "3460": ")}",
  "3461": "aft",
  "3462": "roller",
  "3463": "\u043e\u043d",
  "3464": "oo",
  "3465": "Date",
  "3466": "\u2581ou",
  "3467": "sy",
  "3468": "\u2581pretty",
  "3469": "\u2581image",
  "3470": "BU",
  "3471": "\u2581terms",
  "3472": "\u2581search",
  "3473": "\u2581\u00e8",
  "3474": "\u2581Val",
  "3475": "\u2581\u2018",
  "3476": "\u2581Dav",
  "3477": "MS",
  "3478": "src",
  "3479": "mar",
  "3480": "incip",
  "3481": "\u2581couldn",
  "3482": "ados",
  "3483": "\u2581dro",
  "3484": "beta",
  "3485": "imum",
  "3486": "\u2581minutes",
  "3487": "\u2581grand",
  "3488": "\u2581\u00bb",
  "3489": "\u2581Our",
  "3490": "Str",
  "3491": "VER",
  "3492": "maz",
  "3493": "\u2581original",
  "3494": "ini",
  "3495": "\u2581coll",
  "3496": "loat",
  "3497": "\u2581os",
  "3498": "});",
  "3499": "summary",
  "3500": "\u2581wall",
  "3501": "Color",
  "3502": "\u2581vers",
  "3503": "\u2581della",
  "3504": "\u2581\"\"\"",
  "3505": "mathbf",
  "3506": "zer",
  "3507": "aur",
  "3508": "\u2581track",
  "3509": "\u2581associ",
  "3510": "\u2581suff",
  "3511": "\u2581inde",
  "3512": "ague",
  "3513": "\u2581Apr",
  "3514": "Le",
  "3515": "roups",
  "3516": "board",
  "3517": "\u2581attack",
  "3518": "\u2581series",
  "3519": "\u2581instead",
  "3520": "ham",
  "3521": "book",
  "3522": "\u2581six",
  "3523": "\u2581Rec",
  "3524": "\u2581coming",
  "3525": "urt",
  "3526": "\u2581global",
  "3527": "\u2581necess",
  "3528": "lege",
  "3529": "Pos",
  "3530": "\u2581leave",
  "3531": "\u2581pod",
  "3532": "ategory",
  "3533": "uz",
  "3534": "\u2581deep",
  "3535": "\u2581km",
  "3536": "\u2581outside",
  "3537": "has",
  "3538": "options",
  "3539": "\u2581Sm",
  "3540": "Sub",
  "3541": "rows",
  "3542": "\u2581\u0432\u0438",
  "3543": "\u2581States",
  "3544": "\u2581wrong",
  "3545": "\u2581however",
  "3546": "\u2581sem",
  "3547": "\u2581catch",
  "3548": "\"),",
  "3549": "model",
  "3550": "\u2581http",
  "3551": "\u2581option",
  "3552": "rie",
  "3553": "\u2581\u0441\u0442\u0430",
  "3554": "\u2581\u00e4r",
  "3555": "\u2581enjoy",
  "3556": "nu",
  "3557": "\u2581pas",
  "3558": "\u2581amount",
  "3559": "\u2581respons",
  "3560": "\u2581Intern",
  "3561": "\u2581myself",
  "3562": "\u2581opp",
  "3563": "\u2581Sim",
  "3564": "\u2581sens",
  "3565": "Ed",
  "3566": "\u2581(\\",
  "3567": "\u2581students",
  "3568": "\u043d\u043e\u0432",
  "3569": "\u2581points",
  "3570": "arning",
  "3571": "UP",
  "3572": "elling",
  "3573": "\u2581cannot",
  "3574": "Be",
  "3575": "\u2581length",
  "3576": "null",
  "3577": "uint",
  "3578": "wise",
  "3579": "\u2581double",
  "3580": "ige",
  "3581": "ista",
  "3582": "\u2581estab",
  "3583": "anch",
  "3584": "\u2581ago",
  "3585": "\u2581bound",
  "3586": "\u2581fa",
  "3587": "\u2581clean",
  "3588": "\u2581simple",
  "3589": "mi",
  "3590": "########",
  "3591": "ifier",
  "3592": "\u2581General",
  "3593": "\u2581seemed",
  "3594": "ena",
  "3595": "\u2581age",
  "3596": "\u043d\u043e\u0439",
  "3597": "endif",
  "3598": "AA",
  "3599": "\u2581caus",
  "3600": "\u2581educ",
  "3601": "\u2581cell",
  "3602": "Gener",
  "3603": "space",
  "3604": "\u2581Your",
  "3605": "\u2581beaut",
  "3606": "gt",
  "3607": "\u2581limit",
  "3608": "\u2581date",
  "3609": "Util",
  "3610": "\u2581National",
  "3611": "ows",
  "3612": "pat",
  "3613": "quad",
  "3614": "\u2581ok",
  "3615": "\u2581\u0418",
  "3616": "arth",
  "3617": "hat",
  "3618": "\u2581community",
  "3619": "oul",
  "3620": "\u2581econom",
  "3621": "Component",
  "3622": "bor",
  "3623": "usion",
  "3624": "\u2581below",
  "3625": "earch",
  "3626": "ores",
  "3627": "ban",
  "3628": "\u2581August",
  "3629": "\u2581further",
  "3630": "sigma",
  "3631": "\u2581ha",
  "3632": "ji",
  "3633": "\u2581comput",
  "3634": "\u0433\u0440\u0430",
  "3635": "\u2581None",
  "3636": "\u2581ter",
  "3637": "\u2581anyone",
  "3638": "\u2581task",
  "3639": "ente",
  "3640": "position",
  "3641": "pped",
  "3642": "\u2581aus",
  "3643": "Attribute",
  "3644": "req",
  "3645": "addr",
  "3646": "light",
  "3647": "\u0448\u0435",
  "3648": "\u2581arm",
  "3649": "cover",
  "3650": "upport",
  "3651": "\u2581Gl",
  "3652": "\u2581San",
  "3653": "\u2581writing",
  "3654": "\u2581lost",
  "3655": "\u2581Mark",
  "3656": "\u2581gre",
  "3657": "TYPE",
  "3658": "\u2581South",
  "3659": "\u2581perfect",
  "3660": "\u2581package",
  "3661": "\u2581infl",
  "3662": "haps",
  "3663": "\u2581Ang",
  "3664": "respon",
  "3665": "ris",
  "3666": "ptember",
  "3667": "\u2581building",
  "3668": "VAL",
  "3669": "free",
  "3670": "\u2581ce",
  "3671": "HT",
  "3672": "\u2581From",
  "3673": "ds",
  "3674": "roy",
  "3675": "achine",
  "3676": "nown",
  "3677": "\u2581saying",
  "3678": "\u2581\u0431\u044b",
  "3679": "oe",
  "3680": "Ref",
  "3681": "\u2581network",
  "3682": "parent",
  "3683": "uge",
  "3684": "\u2581similar",
  "3685": ">\r",
  "3686": "Builder",
  "3687": "\u2581living",
  "3688": "\u2581continue",
  "3689": "anger",
  "3690": "\u2581Red",
  "3691": "\u2581hair",
  "3692": "anced",
  "3693": "ians",
  "3694": "\u2581dead",
  "3695": "\u2581boolean",
  "3696": "ication",
  "3697": "\u2581\u0434\u0435",
  "3698": "\u2581client",
  "3699": "uct",
  "3700": "\u2581\u2022",
  "3701": "SP",
  "3702": "older",
  "3703": "\u043f\u0435",
  "3704": "udio",
  "3705": "\u2581deg",
  "3706": "asing",
  "3707": "\u2581step",
  "3708": "\u2581pers",
  "3709": "\u00e7\u00e3o",
  "3710": "obj",
  "3711": "oz",
  "3712": "ula",
  "3713": "\u2581round",
  "3714": "\u2581upon",
  "3715": "\u2581resource",
  "3716": "\u2581valid",
  "3717": "\u2581II",
  "3718": "bug",
  "3719": "std",
  "3720": "\u2581ang",
  "3721": "span",
  "3722": "pol",
  "3723": "ialog",
  "3724": "\u2581phot",
  "3725": "?'",
  "3726": "DB",
  "3727": "\u2581Fin",
  "3728": "VE",
  "3729": "Em",
  "3730": "\u2581cam",
  "3731": "target",
  "3732": "pected",
  "3733": "Hel",
  "3734": "\u2581ut",
  "3735": "\u2581Test",
  "3736": "\u2581town",
  "3737": "align",
  "3738": "\u2581webs",
  "3739": "inner",
  "3740": "augh",
  "3741": "\u2581except",
  "3742": "\u2581initial",
  "3743": "enty",
  "3744": "lich",
  "3745": "\u2581Aut",
  "3746": "top",
  "3747": "\u2581fail",
  "3748": "ona",
  "3749": "\u2581benef",
  "3750": "anks",
  "3751": "ische",
  "3752": ".*",
  "3753": "\u2581signific",
  "3754": "\u2581contact",
  "3755": "Rec",
  "3756": "ario",
  "3757": "ottom",
  "3758": "\u2581relationship",
  "3759": "]);",
  "3760": "\u2581\u041d\u0430",
  "3761": "Head",
  "3762": "format",
  "3763": "\u2581\u00e9t",
  "3764": "\u2581More",
  "3765": "actory",
  "3766": "portun",
  "3767": "+\\",
  "3768": "\u2581simply",
  "3769": "\u2581ep",
  "3770": "\u2581Russ",
  "3771": "n\u00ed",
  "3772": "ua",
  "3773": "erc",
  "3774": "\u2581longer",
  "3775": "inition",
  "3776": "ector",
  "3777": "aption",
  "3778": "\u2581profess",
  "3779": "\u2581Mus",
  "3780": "ilities",
  "3781": "\u00e8s",
  "3782": "\u2581Act",
  "3783": "offset",
  "3784": "\u2581ill",
  "3785": "band",
  "3786": "\u2581Ag",
  "3787": "\u2581\u041f\u043e",
  "3788": "\u0431\u0438",
  "3789": "content",
  "3790": "icon",
  "3791": "\u2581works",
  "3792": "ynam",
  "3793": "plement",
  "3794": "Resource",
  "3795": "Action",
  "3796": "\u2581difficult",
  "3797": "\u2581West",
  "3798": "\u2581video",
  "3799": "\u2581THE",
  "3800": "\u2581decl",
  "3801": "ondon",
  "3802": "ded",
  "3803": "}{\\",
  "3804": "ocr",
  "3805": "\u2581City",
  "3806": "\u2581\u044f",
  "3807": "uer",
  "3808": "cz",
  "3809": "\u2581imag",
  "3810": "cr",
  "3811": "ete",
  "3812": "idget",
  "3813": "\u2581Mod",
  "3814": "\u2581forward",
  "3815": "\u2581pict",
  "3816": "orge",
  "3817": "\u2581subject",
  "3818": "update",
  "3819": "attle",
  "3820": "sa",
  "3821": "\u2581Ant",
  "3822": "\u2581running",
  "3823": "\u2581sal",
  "3824": "conne",
  "3825": "\u2581output",
  "3826": "adata",
  "3827": "ML",
  "3828": "Check",
  "3829": "ledge",
  "3830": "\u2581paper",
  "3831": "params",
  "3832": "avy",
  "3833": "\u2581af",
  "3834": "\u2581eine",
  "3835": "\u2581jour",
  "3836": "AY",
  "3837": "\u2581itself",
  "3838": "\u2581Str",
  "3839": "style",
  "3840": "That",
  "3841": "\u2581million",
  "3842": "\u2581language",
  "3843": "OS",
  "3844": "ving",
  "3845": "\u2581\u043c\u0430",
  "3846": "\u2581\u0442\u043e",
  "3847": ")(",
  "3848": "\u2581buy",
  "3849": "./",
  "3850": "\u2581...",
  "3851": "\u2581tried",
  "3852": "\u2581compl",
  "3853": "\u2581activ",
  "3854": "apped",
  "3855": "Button",
  "3856": "Token",
  "3857": "\u2581provided",
  "3858": "iber",
  "3859": "\u2581created",
  "3860": "curity",
  "3861": "End",
  "3862": "a\u0142",
  "3863": "uster",
  "3864": "izing",
  "3865": "omb",
  "3866": "\u2581sich",
  "3867": "\u2581compon",
  "3868": "\u2581See",
  "3869": "\u2581uint",
  "3870": "\u2581label",
  "3871": "vol",
  "3872": "\u00f3w",
  "3873": "ocol",
  "3874": "\u2581received",
  "3875": "\u2581intern",
  "3876": "\u0446\u0435",
  "3877": "Run",
  "3878": "\u2581road",
  "3879": "\u2581Oct",
  "3880": "\u2581Comp",
  "3881": "\u2581study",
  "3882": "\u2581\u0442\u0435",
  "3883": "Act",
  "3884": "\u2581tour",
  "3885": "\u2581State",
  "3886": "\u2581added",
  "3887": "https",
  "3888": "stream",
  "3889": "\u2581lower",
  "3890": "\u2581box",
  "3891": "\u2581Sk",
  "3892": "\u2581themselves",
  "3893": "\u2581cross",
  "3894": "\u2581echo",
  "3895": "\u2581device",
  "3896": "pose",
  "3897": "\u2581games",
  "3898": "PL",
  "3899": "Window",
  "3900": "ises",
  "3901": "title",
  "3902": "Stream",
  "3903": "zt",
  "3904": "\u2581Sw",
  "3905": "\u2581role",
  "3906": "iant",
  "3907": "ku",
  "3908": "sequ",
  "3909": "\u2581late",
  "3910": "\u2581sold",
  "3911": "\u0440\u044f",
  "3912": "Comm",
  "3913": "\u2581entre",
  "3914": "\u2581dog",
  "3915": "device",
  "3916": "Par",
  "3917": "\u2581likely",
  "3918": "^{-",
  "3919": "\u2581len",
  "3920": "\u2581Paul",
  "3921": "\u2581tool",
  "3922": "Off",
  "3923": "\u2581famil",
  "3924": "\u2581draw",
  "3925": "apping",
  "3926": "\u2581events",
  "3927": "cret",
  "3928": "rought",
  "3929": "Content",
  "3930": "\u2581software",
  "3931": "ria",
  "3932": "msg",
  "3933": "gamma",
  "3934": "\u2581hear",
  "3935": "Oper",
  "3936": "\u2581yourself",
  "3937": "\u2581liter",
  "3938": "emp",
  "3939": "\u2581separ",
  "3940": "\u2581\u0417",
  "3941": "\u2581title",
  "3942": "Method",
  "3943": "mathrm",
  "3944": "\u2581slow",
  "3945": "\u2581Rom",
  "3946": "!!",
  "3947": "\u2581tax",
  "3948": "\u0441\u043a\u0430",
  "3949": "emplate",
  "3950": "oi",
  "3951": "\u2581Art",
  "3952": "false",
  "3953": "astic",
  "3954": "\u0441\u0442\u044c",
  "3955": "ocket",
  "3956": "\u2581ens",
  "3957": "TO",
  "3958": "amente",
  "3959": "local",
  "3960": "chie",
  "3961": "\u2581pan",
  "3962": "\u043d\u0438\u0439",
  "3963": "chema",
  "3964": "\u2581North",
  "3965": "\u0437\u043e",
  "3966": "\u2581>=",
  "3967": "Aut",
  "3968": "\u2581dig",
  "3969": "\u2581seems",
  "3970": "\u2581morning",
  "3971": "sole",
  "3972": "umer",
  "3973": "delta",
  "3974": "it\u00e9",
  "3975": "abase",
  "3976": "raf",
  "3977": "\u2581observ",
  "3978": "\u2581Est",
  "3979": "\u2581seg",
  "3980": "\u2581[]",
  "3981": "\u2581Pres",
  "3982": "iful",
  "3983": "push",
  "3984": "\u2581Off",
  "3985": "ipe",
  "3986": "ati",
  "3987": "\u2581dim",
  "3988": "ceed",
  "3989": "Ent",
  "3990": "____",
  "3991": "entry",
  "3992": "\u2581fight",
  "3993": "\u2581cred",
  "3994": "\u2581OR",
  "3995": "\u2581Dep",
  "3996": "${",
  "3997": "\u043b\u0435\u043d",
  "3998": "Create",
  "3999": "\u2581April",
  "4000": "ministr",
  "4001": "FL",
  "4002": "\u2581Ap",
  "4003": "\u2581Here",
  "4004": "private",
  "4005": "Instance",
  "4006": "iem",
  "4007": "\u2581office",
  "4008": "\u2581third",
  "4009": "\u2581update",
  "4010": "Line",
  "4011": "tag",
  "4012": "\u2581especially",
  "4013": "\u2581\u0433\u043e\u0434\u0430",
  "4014": "\u2581cu",
  "4015": "\u2581kill",
  "4016": "aught",
  "4017": "\u2581swe",
  "4018": "Options",
  "4019": "IM",
  "4020": "CC",
  "4021": "\u2581compan",
  "4022": "just",
  "4023": "\u2581While",
  "4024": "izer",
  "4025": "\u2581\u043c\u043e",
  "4026": "\u043a\u0435",
  "4027": "\u2581auto",
  "4028": "\u2581band",
  "4029": "\u043c\u0435\u043d",
  "4030": "iques",
  "4031": "\u2581ple",
  "4032": "NO",
  "4033": "\u2581OF",
  "4034": "\u2581song",
  "4035": "\u2581Acc",
  "4036": "EXT",
  "4037": "ensor",
  "4038": "ining",
  "4039": "\u2581lat",
  "4040": "big",
  "4041": "\u2581King",
  "4042": "och",
  "4043": "si",
  "4044": "\u2581Hist",
  "4045": "\u2581quality",
  "4046": "mode",
  "4047": "\u2581opportun",
  "4048": "\u2581wouldn",
  "4049": ":**",
  "4050": "output",
  "4051": "\u2581feet",
  "4052": "\u2581mis",
  "4053": "df",
  "4054": "aging",
  "4055": "\u2581\u043c\u0435",
  "4056": "\u2581tro",
  "4057": "\u2581defined",
  "4058": "\u2581review",
  "4059": "\u2581Fil",
  "4060": ">>",
  "4061": "\u2581princip",
  "4062": "Base",
  "4063": "dict",
  "4064": "verage",
  "4065": "icient",
  "4066": "IF",
  "4067": "\u2581hit",
  "4068": "Page",
  "4069": "\u2581perm",
  "4070": "cel",
  "4071": "\u00edt",
  "4072": "\u2581express",
  "4073": "\u2581indic",
  "4074": "\u2581September",
  "4075": "image",
  "4076": "\u2581products",
  "4077": "\u2581media",
  "4078": "change",
  "4079": "igger",
  "4080": "\u2581send",
  "4081": "last",
  "4082": "ming",
  "4083": "pa",
  "4084": "uary",
  "4085": "\u2581speak",
  "4086": "\u043d\u044b\u0439",
  "4087": "\u0449\u0435",
  "4088": "ysis",
  "4089": "lying",
  "4090": "\u2581\u0447",
  "4091": "like",
  "4092": "\u0440\u044b",
  "4093": "\u0432\u0456",
  "4094": "\u2581Mich",
  "4095": "MO",
  "4096": "\u2581Jah",
  "4097": "ensive",
  "4098": "\u2581share",
  "4099": "\u2581development",
  "4100": "CP",
  "4101": "spec",
  "4102": "\u2581fast",
  "4103": "het",
  "4104": "HO",
  "4105": "\u2581particip",
  "4106": "Block",
  "4107": "\u2581viol",
  "4108": "\u2581frame",
  "4109": "\u2581qual",
  "4110": "tre",
  "4111": "\u2581\u0424",
  "4112": "\u2581toward",
  "4113": "fg",
  "4114": "Box",
  "4115": "Column",
  "4116": "\u2581milit",
  "4117": "\u2581March",
  "4118": "\u2581various",
  "4119": "pass",
  "4120": "\u2581Park",
  "4121": "\u2581Ben",
  "4122": "Frame",
  "4123": "\u2581normal",
  "4124": "open",
  "4125": "px",
  "4126": "\u2581phone",
  "4127": "\u2581Even",
  "4128": "\u2581ma",
  "4129": "ibrary",
  "4130": "Start",
  "4131": "idden",
  "4132": "rho",
  "4133": "graph",
  "4134": "acing",
  "4135": "'.",
  "4136": "arter",
  "4137": "mes",
  "4138": "inst",
  "4139": "\u2581ir",
  "4140": "active",
  "4141": "\u2581fem",
  "4142": "\u2581moved",
  "4143": "\u2581store",
  "4144": "\u2581price",
  "4145": "\").",
  "4146": "berg",
  "4147": "\u2581nov",
  "4148": "\u2581card",
  "4149": "ellow",
  "4150": "\u2581party",
  "4151": "\u2581Mor",
  "4152": "ael",
  "4153": "\u2581percent",
  "4154": "\u2581training",
  "4155": "\u2581ing",
  "4156": "imer",
  "4157": "\u2581Sam",
  "4158": "Default",
  "4159": "\u2581fuck",
  "4160": "\u2581complete",
  "4161": "uid",
  "4162": "\u2581details",
  "4163": "\u2581led",
  "4164": "Point",
  "4165": "\u2581Count",
  "4166": "\u2581regard",
  "4167": "zo",
  "4168": "\u2581Bro",
  "4169": "\u2581recogn",
  "4170": "\u2581Hol",
  "4171": "UM",
  "4172": "element",
  "4173": "Mode",
  "4174": "\u2581exam",
  "4175": "\u2581EX",
  "4176": "Image",
  "4177": "verse",
  "4178": "riter",
  "4179": "soft",
  "4180": "\u2581introdu",
  "4181": "\u2581surpr",
  "4182": "Buffer",
  "4183": "lector",
  "4184": "aren",
  "4185": "anged",
  "4186": "\u2581Pat",
  "4187": "\u2581Pal",
  "4188": "\u2581contr",
  "4189": "Handler",
  "4190": "\u2581features",
  "4191": "iple",
  "4192": "\u2581CON",
  "4193": "Fil",
  "4194": "\u2581Port",
  "4195": "\u2581thinking",
  "4196": "doc",
  "4197": "wer",
  "4198": "\u2581worked",
  "4199": "PC",
  "4200": "cm",
  "4201": "dat",
  "4202": "PRO",
  "4203": "\u2581Every",
  "4204": "\u2581era",
  "4205": "\u2581First",
  "4206": "gn",
  "4207": "\u2581immedi",
  "4208": "ovember",
  "4209": "apan",
  "4210": "\u2581extra",
  "4211": "\u2581section",
  "4212": "\u2581June",
  "4213": "\u2581via",
  "4214": "\u2581gone",
  "4215": "come",
  "4216": "\u2581stri",
  "4217": "^\\",
  "4218": "antly",
  "4219": "\u2581arch",
  "4220": "Source",
  "4221": "\u2581conv",
  "4222": "\u2581London",
  "4223": "Number",
  "4224": "\u2581questions",
  "4225": "andid",
  "4226": "\u2581played",
  "4227": "env",
  "4228": "\u2581School",
  "4229": "\u2581natural",
  "4230": "can",
  "4231": "\u2581news",
  "4232": "DR",
  "4233": "\u2581chall",
  "4234": "\u2581Soc",
  "4235": "\u2581\u044d",
  "4236": "\u2581attempt",
  "4237": "*}",
  "4238": "Null",
  "4239": "rote",
  "4240": "\u2581bi",
  "4241": "\u2581written",
  "4242": "\u2581blood",
  "4243": "\u2581happened",
  "4244": "\u2581cause",
  "4245": "ashing",
  "4246": "\u2581William",
  "4247": "adem",
  "4248": "\u2581brought",
  "4249": "\u2581display",
  "4250": "ima",
  "4251": "\u2581finally",
  "4252": "tab",
  "4253": "\u2581returned",
  "4254": "\u043d\u044b\u0445",
  "4255": "nie",
  "4256": "\u2581q",
  "4257": "\u2581hers",
  "4258": "\u2581Pre",
  "4259": "\u2581dou",
  "4260": "buffer",
  "4261": "\u2581effort",
  "4262": "aine",
  "4263": "xy",
  "4264": "\u2581histor",
  "4265": "enu",
  "4266": "\u2581arriv",
  "4267": "\u2581Dem",
  "4268": "\u2581favor",
  "4269": "\u2581handle",
  "4270": "SET",
  "4271": "\u2581Public",
  "4272": "rupt",
  "4273": "\u2581ur",
  "4274": "\u2581force",
  "4275": "\u2581\u00e9s",
  "4276": "ube",
  "4277": "Pre",
  "4278": "\u0440\u0456",
  "4279": "iny",
  "4280": "theta",
  "4281": "isf",
  "4282": "\u2581national",
  "4283": "Equal",
  "4284": "rench",
  "4285": "\u2581wife",
  "4286": "\u2581capt",
  "4287": "\u2581Inter",
  "4288": "tau",
  "4289": "\u2581sleep",
  "4290": "../../",
  "4291": "\u2581issue",
  "4292": "\u2581member",
  "4293": "\u2581await",
  "4294": "\u2581Dan",
  "4295": "zi",
  "4296": "inate",
  "4297": "\u2581sym",
  "4298": "chan",
  "4299": "\u2581Jack",
  "4300": "\u2581English",
  "4301": "\u2581sz",
  "4302": "ributes",
  "4303": "\u2581ign",
  "4304": "\u00e1l",
  "4305": "\u2581appear",
  "4306": "rad",
  "4307": "idge",
  "4308": "\u2581couple",
  "4309": "\u2581ship",
  "4310": "lig",
  "4311": "web",
  "4312": "\u2581usually",
  "4313": "\u2581ready",
  "4314": "\u2581vill",
  "4315": "\u2581Why",
  "4316": "ebru",
  "4317": "\u2581grad",
  "4318": "ords",
  "4319": "\u2581inf",
  "4320": "\u2581loss",
  "4321": "\u2581od",
  "4322": "\u2581Phil",
  "4323": "server",
  "4324": "\u2581Up",
  "4325": "\u2581buff",
  "4326": "\u2581filename",
  "4327": "ABLE",
  "4328": "iting",
  "4329": "efore",
  "4330": "()->",
  "4331": "\u2581conditions",
  "4332": "vm",
  "4333": "eld",
  "4334": "itz",
  "4335": "\u2581Trans",
  "4336": "\u2581weight",
  "4337": "\u2581higher",
  "4338": "\u2581rate",
  "4339": "\u2581accom",
  "4340": "vider",
  "4341": "OM",
  "4342": "\u2581ways",
  "4343": "coming",
  "4344": "\u2581lock",
  "4345": "\u2581etc",
  "4346": "\u2581avec",
  "4347": "\u2581takes",
  "4348": "\u2581Char",
  "4349": "\u2581November",
  "4350": "method",
  "4351": "\u2581Austral",
  "4352": "\u2581America",
  "4353": "long",
  "4354": "cember",
  "4355": "\u2581political",
  "4356": "flow",
  "4357": "\u2581maybe",
  "4358": "\u2581amb",
  "4359": "Layout",
  "4360": "iled",
  "4361": "omen",
  "4362": "ola",
  "4363": "icip",
  "4364": "partial",
  "4365": "True",
  "4366": "\u2581floor",
  "4367": "\u2581Def",
  "4368": "\u2581concern",
  "4369": "yr",
  "4370": "\u2581shows",
  "4371": "ih",
  "4372": "\u2581answer",
  "4373": "acc",
  "4374": "\u2581ball",
  "4375": "\u2581Rev",
  "4376": "\u2581sun",
  "4377": "\u2581quickly",
  "4378": "\u2581somet",
  "4379": "mente",
  "4380": "\u2581Mal",
  "4381": "undred",
  "4382": "\u2581issues",
  "4383": "ecause",
  "4384": "pes",
  "4385": "\u2581player",
  "4386": "\u2581parents",
  "4387": "\u2581popular",
  "4388": "\u2581mode",
  "4389": "\u2581mention",
  "4390": "NE",
  "4391": "Load",
  "4392": "\u2581regular",
  "4393": "aved",
  "4394": "?:",
  "4395": "year",
  "4396": "func",
  "4397": "\u2581performance",
  "4398": "\u2581July",
  "4399": "thern",
  "4400": "\u2581website",
  "4401": "ford",
  "4402": "PR",
  "4403": "ela",
  "4404": "level",
  "4405": "uit",
  "4406": "flags",
  "4407": "\u2581worth",
  "4408": "\u2581correspon",
  "4409": "\u2581British",
  "4410": "sim",
  "4411": "\u2581alone",
  "4412": "\u2581har",
  "4413": "\u2581ones",
  "4414": "obile",
  "4415": "\u2581dru",
  "4416": "chi",
  "4417": "\u2581David",
  "4418": "\u2581problems",
  "4419": "\u2581column",
  "4420": "();\r",
  "4421": "ZE",
  "4422": "\u2581relig",
  "4423": "ological",
  "4424": "\u2581region",
  "4425": "ady",
  "4426": "IO",
  "4427": "ander",
  "4428": "Net",
  "4429": "\u2581built",
  "4430": "\u2581install",
  "4431": "\u2581approach",
  "4432": "Cur",
  "4433": "\u2581fine",
  "4434": "\u2581talking",
  "4435": "\u2581changes",
  "4436": "Style",
  "4437": "\u2581Mart",
  "4438": "\u043b\u044e",
  "4439": "response",
  "4440": "teger",
  "4441": "{\r",
  "4442": "irit",
  "4443": "\u2581protected",
  "4444": "\u2581rele",
  "4445": "ership",
  "4446": "\u0442\u0435\u043b\u044c",
  "4447": "unsigned",
  "4448": "ialize",
  "4449": "\u2581https",
  "4450": "Tag",
  "4451": "\u2581$(",
  "4452": "more",
  "4453": "ypes",
  "4454": "\u2581stream",
  "4455": "etch",
  "4456": "\u2581engine",
  "4457": "KE",
  "4458": "cmd",
  "4459": "script",
  "4460": "ttp",
  "4461": "\u2581avoid",
  "4462": "\u2581terr",
  "4463": "\u2581rock",
  "4464": "\u2581ful",
  "4465": "Update",
  "4466": "\u2581environment",
  "4467": "\u2581prec",
  "4468": "\u2581\u0441\u0430",
  "4469": "\u2581cases",
  "4470": "\u2581offset",
  "4471": "\u2581rais",
  "4472": "lib",
  "4473": "\u00e9es",
  "4474": "aa",
  "4475": "yt",
  "4476": "\u2581arr",
  "4477": "opyright",
  "4478": "first",
  "4479": "\u2581util",
  "4480": "\u2581feature",
  "4481": "posed",
  "4482": "ffect",
  "4483": "\u0436\u0430",
  "4484": "itude",
  "4485": "ements",
  "4486": "asc",
  "4487": "ador",
  "4488": "lections",
  "4489": "\u2581club",
  "4490": "]{",
  "4491": "\u2581*)",
  "4492": "\u0441\u0442\u0432\u043e",
  "4493": "\u2581imm",
  "4494": "\u2581former",
  "4495": "\u2581rights",
  "4496": "\u2581decided",
  "4497": "\u2581rev",
  "4498": "\u2581ment",
  "4499": "ani",
  "4500": "\u2581stru",
  "4501": "\u2581attention",
  "4502": "artment",
  "4503": "\u2581Ital",
  "4504": "alle",
  "4505": "\u2581bis",
  "4506": "gener",
  "4507": "\u2581integr",
  "4508": "ello",
  "4509": "rypt",
  "4510": "\u2581achie",
  "4511": "nes",
  "4512": "\u2581stra",
  "4513": "sb",
  "4514": "\u2581types",
  "4515": "\u2581RE",
  "4516": "Init",
  "4517": "\u2581comment",
  "4518": "\u2581addition",
  "4519": "\u2581ID",
  "4520": "ART",
  "4521": "FO",
  "4522": "\u0449\u0438",
  "4523": "Conne",
  "4524": "\u2581squ",
  "4525": "\u2581considered",
  "4526": "idad",
  "4527": "\u2581October",
  "4528": "cial",
  "4529": "\u2581Of",
  "4530": "\u2581travel",
  "4531": "\u2581boy",
  "4532": "').",
  "4533": "uy",
  "4534": "illa",
  "4535": "istry",
  "4536": "\u2581va",
  "4537": "\u2581Che",
  "4538": "ERT",
  "4539": "ende",
  "4540": "ungen",
  "4541": "aby",
  "4542": "\u2581Rober",
  "4543": "\u2581playing",
  "4544": "ils",
  "4545": "\u2581sam",
  "4546": "\u2581execut",
  "4547": "\u2581Us",
  "4548": "\u2581mut",
  "4549": "\u2581bal",
  "4550": "asse",
  "4551": "\u2581kids",
  "4552": "\u2581financ",
  "4553": "gor",
  "4554": "\u2581Sec",
  "4555": "bert",
  "4556": "\u2581High",
  "4557": "\u2581\u0458\u0435",
  "4558": "\u2581kept",
  "4559": "button",
  "4560": "itory",
  "4561": "\u2581Rem",
  "4562": "\u2581DE",
  "4563": "\u2581reach",
  "4564": "\u2581bur",
  "4565": "Label",
  "4566": "\u00e1t",
  "4567": "ago",
  "4568": "\u2581passed",
  "4569": "\u2581behav",
  "4570": "xFF",
  "4571": "\u2581Return",
  "4572": "STR",
  "4573": "\u2581Les",
  "4574": "\u2581ord",
  "4575": "ala",
  "4576": "inger",
  "4577": "\u2581Since",
  "4578": "\u2581experi",
  "4579": "\u2581shall",
  "4580": "\u2581star",
  "4581": "non",
  "4582": "\u2581gun",
  "4583": "\u2581Bel",
  "4584": "\u2581obj",
  "4585": "ares",
  "4586": "rs",
  "4587": "\u2581weeks",
  "4588": "nen",
  "4589": "\u2581Stre",
  "4590": "oring",
  "4591": "\u2581\u00ee",
  "4592": "\u2581serious",
  "4593": "times",
  "4594": "\u2581House",
  "4595": "\u2581roll",
  "4596": "\u2581register",
  "4597": "\u2581module",
  "4598": "\u2581applic",
  "4599": "IR",
  "4600": "\u2581cook",
  "4601": "aux",
  "4602": "\u2581save",
  "4603": "\u2581Cr",
  "4604": ",\r",
  "4605": "\u2581states",
  "4606": "\u2581empty",
  "4607": "\u2581autom",
  "4608": "figure",
  "4609": "iance",
  "4610": "\u2581happy",
  "4611": "\u2581fn",
  "4612": "\u2581jud",
  "4613": "\u2581hat",
  "4614": "ACK",
  "4615": "\u2581Fe",
  "4616": "$-",
  "4617": "ivil",
  "4618": "oted",
  "4619": "\u2581sizeof",
  "4620": "\u2581situation",
  "4621": "\u2581lives",
  "4622": "\u2581feeling",
  "4623": "\u2581risk",
  "4624": "\u2581January",
  "4625": "\u2581Object",
  "4626": "\u2581recomm",
  "4627": "\u2581\u0432\u044b",
  "4628": "\u2581potential",
  "4629": "eah",
  "4630": "\u2581complex",
  "4631": "printf",
  "4632": "istance",
  "4633": "irth",
  "4634": "lik",
  "4635": "aste",
  "4636": "\u2581whose",
  "4637": "Arg",
  "4638": "\u2581modern",
  "4639": "iones",
  "4640": "\u2581\u0447\u0435",
  "4641": "\u2581sett",
  "4642": "\u2581Mag",
  "4643": "ae",
  "4644": "\u2581condition",
  "4645": "Length",
  "4646": "\u2581fit",
  "4647": "ounds",
  "4648": "\u2581changed",
  "4649": "\u2581guy",
  "4650": "filter",
  "4651": "atever",
  "4652": "\u00e9d",
  "4653": "remove",
  "4654": "\u2581hop",
  "4655": "\u2581Out",
  "4656": "\u2581Rich",
  "4657": "child",
  "4658": "\u2581included",
  "4659": "$\\",
  "4660": "\u2581Tom",
  "4661": "eline",
  "4662": "\u2581sometimes",
  "4663": "\u2581drink",
  "4664": "\u2581quant",
  "4665": "\u2581please",
  "4666": "\u2581Int",
  "4667": "rief",
  "4668": "\u2581exactly",
  "4669": "cing",
  "4670": "\u2581allowed",
  "4671": "build",
  "4672": "\u2581beautiful",
  "4673": "\u2581Well",
  "4674": "\u2581looks",
  "4675": "\u2581\u00fc",
  "4676": "\u2581chance",
  "4677": "\u2581wrote",
  "4678": "\u2581nor",
  "4679": "\u2581failed",
  "4680": "Met",
  "4681": "\u2581prior",
  "4682": "\u2581hundred",
  "4683": "\u0441\u043a\u043e\u0439",
  "4684": "oria",
  "4685": "\u2581cy",
  "4686": "\u2581web",
  "4687": "\u2581mess",
  "4688": "leq",
  "4689": "dy",
  "4690": "tex",
  "4691": "\u2581anim",
  "4692": "atur",
  "4693": "\u2581structure",
  "4694": "option",
  "4695": "\u2581actual",
  "4696": "\u2581Franc",
  "4697": "enced",
  "4698": ".</",
  "4699": "\u2581flow",
  "4700": "\u2581Afr",
  "4701": "det",
  "4702": "\u2581Ke",
  "4703": "ety",
  "4704": "\u0441\u043a\u0438\u0439",
  "4705": "\u2581stuff",
  "4706": "itter",
  "4707": "\u2581args",
  "4708": "\u2581album",
  "4709": "\u2581]",
  "4710": "ugin",
  "4711": "SU",
  "4712": "Per",
  "4713": "\u2581circ",
  "4714": "\u2581correct",
  "4715": "\u2581lines",
  "4716": "\u2581completely",
  "4717": "known",
  "4718": "\u2581tree",
  "4719": "root",
  "4720": "\u2581Japan",
  "4721": "oles",
  "4722": "endo",
  "4723": "\u2581location",
  "4724": "\u2581\u0425",
  "4725": "\u2581mid",
  "4726": "aling",
  "4727": "GL",
  "4728": "iano",
  "4729": "\u2581{}",
  "4730": "lang",
  "4731": "\u2581equip",
  "4732": "ERROR",
  "4733": "\u2581memory",
  "4734": "\u2581(\"",
  "4735": "\u2581nature",
  "4736": "google",
  "4737": "abs",
  "4738": "BC",
  "4739": "\u2581gets",
  "4740": "Command",
  "4741": "TER",
  "4742": "aled",
  "4743": "cp",
  "4744": "\u2581purch",
  "4745": "\u2581Den",
  "4746": "\u2581herself",
  "4747": "\u2581Ir",
  "4748": "\u2581sie",
  "4749": "gar",
  "4750": "Ap",
  "4751": "\u2581nel",
  "4752": "ota",
  "4753": ")]",
  "4754": "cor",
  "4755": "acht",
  "4756": "(*",
  "4757": "irtual",
  "4758": "\u2581police",
  "4759": "\u2581skin",
  "4760": "ship",
  "4761": "efined",
  "4762": "aughter",
  "4763": "inding",
  "4764": "\u2581Sl",
  "4765": "\u2581influ",
  "4766": "\u2581mount",
  "4767": "\u2581az",
  "4768": "\u2581wood",
  "4769": "otes",
  "4770": "ega",
  "4771": "\u2581according",
  "4772": "\u2581namespace",
  "4773": "Delta",
  "4774": "stant",
  "4775": "\u2581published",
  "4776": "aker",
  "4777": "\u2581Black",
  "4778": "ln",
  "4779": "\u2581industry",
  "4780": "SON",
  "4781": "Rep",
  "4782": "\u2581choice",
  "4783": "\u2581inn",
  "4784": "kl",
  "4785": "\u2581pal",
  "4786": "\u2581aud",
  "4787": "\u2581standard",
  "4788": "\u2581knowledge",
  "4789": "**,",
  "4790": "\u2581Frank",
  "4791": "sq",
  "4792": "Output",
  "4793": "\u2581f\u00f6r",
  "4794": "Valid",
  "4795": "ugh",
  "4796": "\u2581books",
  "4797": "\u2581James",
  "4798": "ko",
  "4799": "\u2581companies",
  "4800": "anning",
  "4801": "\u2581vict",
  "4802": "\u2581repl",
  "4803": "\u2581sche",
  "4804": "\u2581happen",
  "4805": "fty",
  "4806": "acity",
  "4807": "ira",
  "4808": "\u2581implement",
  "4809": "\u0441\u043a\u043e\u0433\u043e",
  "4810": "number",
  "4811": "SH",
  "4812": "iro",
  "4813": "\u2581fear",
  "4814": "\u2581touch",
  "4815": "\u2581cast",
  "4816": "ASS",
  "4817": "\u2581consist",
  "4818": "Task",
  "4819": "\u2581sig",
  "4820": "\u0431\u0430",
  "4821": "igation",
  "4822": "\u2581Most",
  "4823": "\u2581Der",
  "4824": "}(\\",
  "4825": ":\"",
  "4826": "\u2581Fig",
  "4827": "ali",
  "4828": "iner",
  "4829": "'),",
  "4830": "\u2581Coun",
  "4831": "(_",
  "4832": "\u2581distributed",
  "4833": "NAME",
  "4834": "\u2581mur",
  "4835": "\u2581career",
  "4836": "~~",
  "4837": "pers",
  "4838": "aries",
  "4839": "enses",
  "4840": "\u2581Also",
  "4841": "Version",
  "4842": "\u2581unique",
  "4843": "\u2581France",
  "4844": "BA",
  "4845": "ky",
  "4846": "\u2581Febru",
  "4847": "\u2581died",
  "4848": "omega",
  "4849": "\u2581Form",
  "4850": "\u2581width",
  "4851": "tocol",
  "4852": "\u2581lie",
  "4853": "She",
  "4854": "\u00e9m",
  "4855": "\u2581straight",
  "4856": "\u2581nach",
  "4857": "\u2581stood",
  "4858": "olds",
  "4859": "\u2581goes",
  "4860": "cell",
  "4861": "\u2581till",
  "4862": "LI",
  "4863": "draw",
  "4864": "\u2581satisf",
  "4865": "\u2581reading",
  "4866": "ATION",
  "4867": "\u2581Are",
  "4868": "\u2581Ac",
  "4869": ")*",
  "4870": "\u2581additional",
  "4871": "wood",
  "4872": "cil",
  "4873": "\u043f\u0443",
  "4874": "ULT",
  "4875": "\u2581bill",
  "4876": "mas",
  "4877": "ania",
  "4878": "\u0441\u0443",
  "4879": "anz",
  "4880": "height",
  "4881": "jo",
  "4882": "\u2581dos",
  "4883": "\\\"",
  "4884": "\u2581/>",
  "4885": "\u2581production",
  "4886": "iger",
  "4887": "\u2581\u0441\u0442",
  "4888": "show",
  "4889": "\u2581population",
  "4890": "\u2581park",
  "4891": "\u2581Ze",
  "4892": "\u2581necessary",
  "4893": "\u2581trust",
  "4894": "\u2581shown",
  "4895": "module",
  "4896": "GE",
  "4897": "\u2581lay",
  "4898": "\u2581announ",
  "4899": "\u2581className",
  "4900": "\u2581calcul",
  "4901": "Function",
  "4902": "\u2581Sal",
  "4903": "OK",
  "4904": "TP",
  "4905": "\u2581entry",
  "4906": "\u2581Stud",
  "4907": "\u2581items",
  "4908": "\u2581security",
  "4909": "Entry",
  "4910": "float",
  "4911": "ls",
  "4912": "ibly",
  "4913": "\u2581contribut",
  "4914": "\u2581Check",
  "4915": "MD",
  "4916": "\u2581improve",
  "4917": "Part",
  "4918": "\u2581systems",
  "4919": "Bl",
  "4920": "\u2581policy",
  "4921": "\u2581screen",
  "4922": "\u2581Any",
  "4923": "\u2581opened",
  "4924": "alloc",
  "4925": "\u2581December",
  "4926": "\u2581\u00c9",
  "4927": "\u2581email",
  "4928": "ader",
  "4929": "=>",
  "4930": "\u2581Hen",
  "4931": "\u2581info",
  "4932": "\u2581float",
  "4933": "\u2581switch",
  "4934": "\u0440\u0430\u043d",
  "4935": "urance",
  "4936": "\u2581assum",
  "4937": "ustr",
  "4938": "\u2581groups",
  "4939": "\u2581Read",
  "4940": "\u2581wat",
  "4941": "Sp",
  "4942": "\u0432\u0435\u0440",
  "4943": "RAN",
  "4944": "hib",
  "4945": "ALL",
  "4946": "\u2581hus",
  "4947": "Spec",
  "4948": "\"))",
  "4949": "\u2581French",
  "4950": "\u2581Class",
  "4951": "\u2581president",
  "4952": "\u2581definit",
  "4953": "\u2581Nor",
  "4954": "\u2581Thom",
  "4955": "aign",
  "4956": "Width",
  "4957": "Do",
  "4958": "\u2581{@",
  "4959": "agon",
  "4960": "\u2581Lu",
  "4961": "\u2581followed",
  "4962": "MM",
  "4963": "asons",
  "4964": "tmp",
  "4965": "\u2581throws",
  "4966": "ITY",
  "4967": "\u043d\u043e\u043c",
  "4968": "\u2581fair",
  "4969": "\u2581pen",
  "4970": "\u00e9g",
  "4971": "\u2581interface",
  "4972": "\u2581saf",
  "4973": "oon",
  "4974": "Back",
  "4975": "\u2581speed",
  "4976": "\u2581extends",
  "4977": "empty",
  "4978": "\u2581\u043f\u0435\u0440\u0435",
  "4979": "\u2581proper",
  "4980": "\u2581driv",
  "4981": "\u0444\u0438",
  "4982": "\u2581center",
  "4983": "header",
  "4984": "\u2581})",
  "4985": "wa",
  "4986": "\u2581middle",
  "4987": "\u2581choose",
  "4988": "\u2581Stad",
  "4989": "SO",
  "4990": "Factory",
  "4991": "Dev",
  "4992": "icles",
  "4993": "\u2581application",
  "4994": "\u2581models",
  "4995": "pite",
  "4996": "cap",
  "4997": "xi",
  "4998": "ospital",
  "4999": "\u2581dream",
  "5000": "END",
  "5001": "\u2581contract",
  "5002": "icrosoft",
  "5003": "\u2581thous",
  "5004": "izes",
  "5005": "\u2581\u0434\u0430",
  "5006": "\u2581CO",
  "5007": "\u2581direction",
  "5008": "\u2581``",
  "5009": "\u2581drive",
  "5010": "Max",
  "5011": "cia",
  "5012": "\u2581continu",
  "5013": "\u2581Alex",
  "5014": "\u2581gold",
  "5015": "\u2581prep",
  "5016": "\u2581origin",
  "5017": "\u2581rap",
  "5018": "Op",
  "5019": "ously",
  "5020": "\u2581areas",
  "5021": "PORT",
  "5022": "\u043e\u043d\u0430",
  "5023": "\u2581safe",
  "5024": "\u2581professional",
  "5025": "apache",
  "5026": "\u2581temper",
  "5027": "sz",
  "5028": "\u2581unit",
  "5029": "\u2581cop",
  "5030": "eqn",
  "5031": "Listener",
  "5032": "\u2581format",
  "5033": "select",
  "5034": "\u2581comfort",
  "5035": "\u2581meant",
  "5036": "iday",
  "5037": "eme",
  "5038": "\u2581active",
  "5039": "\u2581note",
  "5040": "\u2581Mil",
  "5041": "only",
  "5042": "\u2581<=",
  "5043": "\u2581neigh",
  "5044": "ao",
  "5045": "\u2581blue",
  "5046": "\u2581TV",
  "5047": "Child",
  "5048": "\u2581reached",
  "5049": "Address",
  "5050": "\u0441\u0442\u0432",
  "5051": "\u2581closed",
  "5052": "inder",
  "5053": "olo",
  "5054": "\u2581alt",
  "5055": "\u2581adm",
  "5056": "Format",
  "5057": "UI",
  "5058": "\u2581Ham",
  "5059": "\u2581frequ",
  "5060": "\u2581independ",
  "5061": "\u2581easily",
  "5062": "\u2581Land",
  "5063": "\u2581tor",
  "5064": "ography",
  "5065": "infty",
  "5066": "\u2581Work",
  "5067": "iven",
  "5068": "\u2581County",
  "5069": "\u2581src",
  "5070": "}$,",
  "5071": "parse",
  "5072": "CD",
  "5073": "\u2581Cour",
  "5074": "\u2581fol",
  "5075": "Entity",
  "5076": "pgf",
  "5077": "\u2581China",
  "5078": "\u2581Sub",
  "5079": "hood",
  "5080": "\u2581fields",
  "5081": "\u2581yes",
  "5082": "rend",
  "5083": "\u2581towards",
  "5084": "\u2581staff",
  "5085": "\u2581Air",
  "5086": "\u2581station",
  "5087": "atives",
  "5088": "\u2581impact",
  "5089": "\u0432\u044b",
  "5090": "\u2581directly",
  "5091": "issions",
  "5092": "iva",
  "5093": "|\\",
  "5094": "Ptr",
  "5095": "\u2581Sant",
  "5096": "Pol",
  "5097": "\u2581progress",
  "5098": "itar",
  "5099": "\u2581parts",
  "5100": "\u2581plant",
  "5101": "\u2581absolut",
  "5102": "\u2581guess",
  "5103": "eqref",
  "5104": "\u2581tim",
  "5105": "\u2581Lou",
  "5106": "\u2581cool",
  "5107": "alu",
  "5108": "\u2581mouth",
  "5109": "\u043d\u0438\u0445",
  "5110": "\u2581height",
  "5111": "gest",
  "5112": "\u2581Post",
  "5113": "\u2581board",
  "5114": "\u2581tit",
  "5115": "\u2581hour",
  "5116": "\u2581server",
  "5117": "\u2581players",
  "5118": "rier",
  "5119": "Link",
  "5120": "\u2581President",
  "5121": "](",
  "5122": "\u2581construct",
  "5123": "handle",
  "5124": "}$.",
  "5125": "rying",
  "5126": "\u2581shop",
  "5127": "iana",
  "5128": "exp",
  "5129": "Helper",
  "5130": "Offset",
  "5131": "aches",
  "5132": "\u2581connection",
  "5133": "\u2581difference",
  "5134": "service",
  "5135": "\u2581gas",
  "5136": "\u2581priv",
  "5137": "\u2581univers",
  "5138": "\u2581wish",
  "5139": "Rem",
  "5140": "Url",
  "5141": "geb",
  "5142": "So",
  "5143": "ensions",
  "5144": "Module",
  "5145": "SIZE",
  "5146": "\u2581prem",
  "5147": "window",
  "5148": "\u2581dies",
  "5149": "del",
  "5150": "\u2581row",
  "5151": "\u2581average",
  "5152": "xim",
  "5153": "\u2581pu",
  "5154": "an\u00e7",
  "5155": "Det",
  "5156": "ker",
  "5157": "ya",
  "5158": "\u2581Det",
  "5159": "\u2581p\u00e5",
  "5160": "\u2581named",
  "5161": "\u2581decision",
  "5162": "win",
  "5163": "\u2581George",
  "5164": "arily",
  "5165": "\u2581solution",
  "5166": "\u2581multiple",
  "5167": "ategy",
  "5168": "\u2581learning",
  "5169": "\u2581secret",
  "5170": "DO",
  "5171": "\u2581nice",
  "5172": "////////////////",
  "5173": "Su",
  "5174": "itation",
  "5175": "\u2581join",
  "5176": "\u2581elements",
  "5177": "\u2581emer",
  "5178": "tilde",
  "5179": "\u2581dep",
  "5180": "\u2581shot",
  "5181": "\u2581platform",
  "5182": "othing",
  "5183": "My",
  "5184": "edia",
  "5185": "oms",
  "5186": "aily",
  "5187": "([",
  "5188": "\u2581dress",
  "5189": "\u2581official",
  "5190": "estern",
  "5191": "\u2581discover",
  "5192": "\u2581mi",
  "5193": "\u043d\u044b\u0435",
  "5194": "CA",
  "5195": "oding",
  "5196": "\u2581Found",
  "5197": "\u2581affect",
  "5198": "Vis",
  "5199": "stract",
  "5200": "iced",
  "5201": "debug",
  "5202": "\u2581related",
  "5203": "\u2581spect",
  "5204": "ushed",
  "5205": "\u0441\u044c\u043a\u043e",
  "5206": "\u2581bank",
  "5207": "\u2581cele",
  "5208": "AND",
  "5209": "olf",
  "5210": "\u0435\u043c",
  "5211": "\u2581fill",
  "5212": "\u2581gives",
  "5213": "\u2581\u0431\u0443",
  "5214": "aron",
  "5215": "\u2581Jes",
  "5216": "REG",
  "5217": "\u2581sudd",
  "5218": "dated",
  "5219": "vi",
  "5220": "\u2581gi",
  "5221": "send",
  "5222": "cpp",
  "5223": "\u2581spent",
  "5224": "ande",
  "5225": "\u2581operation",
  "5226": "process",
  "5227": "\u2581inform",
  "5228": "\u2581Free",
  "5229": "yond",
  "5230": "\u2581perhaps",
  "5231": "\u2581surv",
  "5232": "\u2581Loc",
  "5233": "\u2581concl",
  "5234": "\u2581\u0440\u0430\u0437",
  "5235": "\u2581Over",
  "5236": "hol",
  "5237": "raz",
  "5238": "Write",
  "5239": "\u2581giving",
  "5240": "rd",
  "5241": "instance",
  "5242": "\u2581released",
  "5243": "\u2581Ro",
  "5244": "RA",
  "5245": "\u2581practice",
  "5246": "\u2581graph",
  "5247": "\u2581increase",
  "5248": "\u2581figure",
  "5249": "Filter",
  "5250": "HECK",
  "5251": "idx",
  "5252": "\u2581glass",
  "5253": "ski",
  "5254": "comes",
  "5255": "\u2581cat",
  "5256": "\u2581cold",
  "5257": "goto",
  "5258": "ufact",
  "5259": "\u2581Copyright",
  "5260": "}}\\",
  "5261": "\u2581streng",
  "5262": "\u2581dir",
  "5263": "token",
  "5264": "\u2581occur",
  "5265": "arlier",
  "5266": "\u2581measure",
  "5267": "\u2581sec",
  "5268": "\u2581m\u00e1s",
  "5269": "\u2581Net",
  "5270": "\u2581argument",
  "5271": "\u2581sou",
  "5272": "\u2581moving",
  "5273": "\u2581prefer",
  "5274": "mask",
  "5275": "<<",
  "5276": "\u2581breath",
  "5277": "\u2581physical",
  "5278": "\u2581positive",
  "5279": "\u2581sor",
  "5280": "\u2581depart",
  "5281": "\u2581remove",
  "5282": "\u2581kit",
  "5283": "\u2581meeting",
  "5284": "\u2581Data",
  "5285": "ograf",
  "5286": "actions",
  "5287": "\u2581parameters",
  "5288": "\u2581Att",
  "5289": "esch",
  "5290": "\u2581involved",
  "5291": "\u00e4t",
  "5292": "LL",
  "5293": "Bar",
  "5294": "\u2581\u0441\u0438",
  "5295": "ech",
  "5296": "GET",
  "5297": "\u2581prevent",
  "5298": "\u2581beyond",
  "5299": "\u2581Other",
  "5300": "\u00e4n",
  "5301": "byte",
  "5302": "\u2581sudden",
  "5303": "olve",
  "5304": "\u2581\u043d\u043e",
  "5305": "LOG",
  "5306": "unit",
  "5307": "\u2581truth",
  "5308": "rat",
  "5309": "SD",
  "5310": "\u2581eat",
  "5311": "\u2581Mad",
  "5312": "\u2581provides",
  "5313": "\u2581session",
  "5314": "Dele",
  "5315": "\u2581convers",
  "5316": "center",
  "5317": "\u2581continued",
  "5318": "otion",
  "5319": "cache",
  "5320": "display",
  "5321": "\u2581protect",
  "5322": "ams",
  "5323": "\u2581pow",
  "5324": "CTION",
  "5325": "\u2581Mac",
  "5326": "mo",
  "5327": "\u0445\u0430",
  "5328": "\u2581distance",
  "5329": "\u2581Time",
  "5330": "gi",
  "5331": "\u2581sequ",
  "5332": "Target",
  "5333": "\u0441\u043b\u0435",
  "5334": "Server",
  "5335": "\u2581wide",
  "5336": "close",
  "5337": "\u2581cru",
  "5338": "Ext",
  "5339": "\u2581select",
  "5340": "\u2581pattern",
  "5341": "\"));",
  "5342": "Provider",
  "5343": "URL",
  "5344": "\u2581green",
  "5345": "\u2581waiting",
  "5346": "proto",
  "5347": "\u2581immediately",
  "5348": "common",
  "5349": "azione",
  "5350": "river",
  "5351": "\u2581sen",
  "5352": "\u2581!==",
  "5353": "\u2581February",
  "5354": "urb",
  "5355": "\u2581Sen",
  "5356": "dest",
  "5357": "<?",
  "5358": "\u2581edge",
  "5359": "\u2581mais",
  "5360": "gorith",
  "5361": "cpu",
  "5362": "\u2581education",
  "5363": "\u2581associated",
  "5364": "None",
  "5365": "hi",
  "5366": "\u2581poor",
  "5367": "sem",
  "5368": "\u2581Wil",
  "5369": "\u2581bud",
  "5370": "\u2581auch",
  "5371": "eller",
  "5372": "\u2581Life",
  "5373": "\u2581files",
  "5374": "\u2581leading",
  "5375": "\u2581obtain",
  "5376": "\u2581Jul",
  "5377": "atory",
  "5378": "\u0433\u0443",
  "5379": "itable",
  "5380": "\u2581onto",
  "5381": "\u2581born",
  "5382": "orem",
  "5383": "\u2581Street",
  "5384": "\u2581maint",
  "5385": "Params",
  "5386": "rip",
  "5387": "\u2581ST",
  "5388": "uv",
  "5389": "main",
  "5390": "\u2581\u2581\u2581\u2581\u2581\u2581\u2581",
  "5391": "\u2581recent",
  "5392": "Web",
  "5393": "ova",
  "5394": "\u0446\u0430",
  "5395": "aise",
  "5396": "yles",
  "5397": "\u2581described",
  "5398": "\u2581beginning",
  "5399": "\u2581Day",
  "5400": "\u2581Vol",
  "5401": "\u2581huge",
  "5402": "Has",
  "5403": "ancy",
  "5404": "Header",
  "5405": "\u2581aren",
  "5406": "\u0432\u0430\u043d",
  "5407": "\u2581ensure",
  "5408": "\u2581pet",
  "5409": "mult",
  "5410": "\u2581Like",
  "5411": "\u2581management",
  "5412": "PS",
  "5413": "while",
  "5414": "\u2581background",
  "5415": "ounter",
  "5416": "bool",
  "5417": "FC",
  "5418": "Num",
  "5419": "RL",
  "5420": "\u2581excl",
  "5421": "\u2581eye",
  "5422": "img",
  "5423": "\u2581rom",
  "5424": "\u2581Hel",
  "5425": "Option",
  "5426": "\u2581stopped",
  "5427": "\u2581thread",
  "5428": "totype",
  "5429": ")))",
  "5430": "\u2581stage",
  "5431": "\u2581\u00fcber",
  "5432": "\u2581although",
  "5433": "Types",
  "5434": "\u2581Oh",
  "5435": "\u2581eight",
  "5436": "\u2581description",
  "5437": "''",
  "5438": "\u00f6n",
  "5439": "\u2581surface",
  "5440": "\u2581International",
  "5441": "\u2581charg",
  "5442": "\u2581collection",
  "5443": "\u2581users",
  "5444": "\u2581obvious",
  "5445": "\u2581century",
  "5446": "icks",
  "5447": "\u2581article",
  "5448": "\u2581\"\\",
  "5449": "dim",
  "5450": "\u2581sin",
  "5451": "enge",
  "5452": "Control",
  "5453": "\u2581commit",
  "5454": "ensity",
  "5455": "\u2581tra",
  "5456": "criptor",
  "5457": "\u2581NOT",
  "5458": "well",
  "5459": "\u2581Michael",
  "5460": "\u2581nod",
  "5461": "\u2581mort",
  "5462": "ivo",
  "5463": "isation",
  "5464": "\u2581Po",
  "5465": "\u2581Paris",
  "5466": "\u2581administr",
  "5467": "burg",
  "5468": "cdot",
  "5469": "\u2581military",
  "5470": "\u2581Best",
  "5471": "\u2581\u041a\u0430",
  "5472": "INE",
  "5473": "\u2581throughout",
  "5474": "Sl",
  "5475": "\u2581impl",
  "5476": "control",
  "5477": "\u2581\u0427",
  "5478": "\u2581uit",
  "5479": "\u2581unsigned",
  "5480": "\u2581Mary",
  "5481": "Char",
  "5482": "\u043c\u0456",
  "5483": "\u2581threat",
  "5484": "\u2581court",
  "5485": "ville",
  "5486": "\u2581\u0448",
  "5487": "\u2581Cam",
  "5488": ".\r",
  "5489": "\u2581currently",
  "5490": "rot",
  "5491": "\u2581Date",
  "5492": "\u2581shit",
  "5493": "\u2581${\\",
  "5494": "unn",
  "5495": "Us",
  "5496": "\u2581buffer",
  "5497": "\u2581sont",
  "5498": "\u2581letter",
  "5499": "inated",
  "5500": "Change",
  "5501": "\u2581href",
  "5502": "\u2581lack",
  "5503": "\u2581oil",
  "5504": "\u2581Cons",
  "5505": "\u2581Jer",
  "5506": "BUG",
  "5507": "iforn",
  "5508": "\u2581properties",
  "5509": "\u2581random",
  "5510": "\u2581brother",
  "5511": "\u2581piece",
  "5512": "\u0431\u0443",
  "5513": "istics",
  "5514": "\u2581technology",
  "5515": "global",
  "5516": "\u2581transform",
  "5517": "erd",
  "5518": "\u2581Because",
  "5519": "PECT",
  "5520": "pret",
  "5521": "\u2581\u0433\u043e\u0434\u0443",
  "5522": "\u2581Met",
  "5523": "\u2581psy",
  "5524": "\u2581\u043e\u0434",
  "5525": "\u2581god",
  "5526": "\u2581Del",
  "5527": "based",
  "5528": "\u2581voor",
  "5529": "\u2581Call",
  "5530": "SA",
  "5531": "\u2581filter",
  "5532": "\u2581includes",
  "5533": "olutions",
  "5534": "fd",
  "5535": "\u2581wind",
  "5536": "\u2581\u0431\u043e",
  "5537": "\u2581ability",
  "5538": "card",
  "5539": "\u2581numer",
  "5540": "address",
  "5541": "\u2581goal",
  "5542": "ashington",
  "5543": "\u2581slight",
  "5544": "aba",
  "5545": "\u2581Log",
  "5546": "Settings",
  "5547": "adow",
  "5548": "\u2581pi",
  "5549": "iring",
  "5550": "FT",
  "5551": "\u2581numbers",
  "5552": "conf",
  "5553": "task",
  "5554": "\u2581\u00een",
  "5555": "\u0442\u044b",
  "5556": "\u2581receive",
  "5557": "\u2581root",
  "5558": "\u2581India",
  "5559": "patch",
  "5560": "\u00e9l",
  "5561": "\u2581summer",
  "5562": "\u2581methods",
  "5563": "\u2581places",
  "5564": "\u2581\u041c\u0430",
  "5565": "\u2581capital",
  "5566": "\u2581evidence",
  "5567": "\u2581German",
  "5568": "\\,",
  "5569": "DA",
  "5570": "ecute",
  "5571": "column",
  "5572": "\u2581functions",
  "5573": "\u2581counter",
  "5574": "\u2581arms",
  "5575": "\u2581feed",
  "5576": "vey",
  "5577": "hent",
  "5578": "MAX",
  "5579": "\u2581acqu",
  "5580": "\u2581apply",
  "5581": "\u2581husband",
  "5582": "\u2581killed",
  "5583": "\u2581Spec",
  "5584": "entity",
  "5585": "\u2581earlier",
  "5586": "\u2581Miss",
  "5587": "\u2581setting",
  "5588": "itect",
  "5589": "\u2581ded",
  "5590": "Row",
  "5591": "\u2581ran",
  "5592": "\u2581Yes",
  "5593": "\u2581financial",
  "5594": "session",
  "5595": "lear",
  "5596": "ishing",
  "5597": "\u2581nearly",
  "5598": "\u2581dur",
  "5599": "\u2581machine",
  "5600": "xff",
  "5601": "bro",
  "5602": "\u2581symbol",
  "5603": "lands",
  "5604": "Acc",
  "5605": "di",
  "5606": "\u2581Robert",
  "5607": "prop",
  "5608": "urity",
  "5609": "\u2581#####",
  "5610": "\u2581walked",
  "5611": "\u2581international",
  "5612": "\u2581\u0415",
  "5613": "Yes",
  "5614": "\u2581release",
  "5615": "\u2581starting",
  "5616": "static",
  "5617": "\u2581bei",
  "5618": "allow",
  "5619": "\u2581People",
  "5620": "ez",
  "5621": "\u2581parameter",
  "5622": "Cache",
  "5623": "\u2581$$",
  "5624": "ampions",
  "5625": "\u2581Mer",
  "5626": "\u2581kom",
  "5627": "leted",
  "5628": "ois",
  "5629": "\u2581Open",
  "5630": "types",
  "5631": "\u2581fue",
  "5632": "acters",
  "5633": "\u2581reference",
  "5634": "Equals",
  "5635": "\u2581aware",
  "5636": "\u2581hol",
  "5637": "\u2581demand",
  "5638": "lor",
  "5639": "\u2581veh",
  "5640": "\u2581notice",
  "5641": "\u2581component",
  "5642": "fn",
  "5643": "\u2581analysis",
  "5644": "match",
  "5645": "\u2581effective",
  "5646": "product",
  "5647": "\u043d\u0438\u043a",
  "5648": "\u2581legal",
  "5649": "\u0435\u0439",
  "5650": "semb",
  "5651": "\u2581located",
  "5652": "\u2581\u0441\u0443",
  "5653": "QL",
  "5654": "inct",
  "5655": "eto",
  "5656": "Draw",
  "5657": "\u2581scale",
  "5658": "\u0440\u043e\u0432",
  "5659": "\u2581wants",
  "5660": "How",
  "5661": "\u2581wel",
  "5662": "isions",
  "5663": "\u2581deliver",
  "5664": "under",
  "5665": "\u2581deb",
  "5666": "\u2581ju",
  "5667": "values",
  "5668": "\u2581sister",
  "5669": "\u043a\u043e\u0432",
  "5670": "\u2581Create",
  "5671": "\u2581Inc",
  "5672": "\u2581aux",
  "5673": "\u2581White",
  "5674": "Menu",
  "5675": "aud",
  "5676": "resource",
  "5677": "\u2581cab",
  "5678": "\u2581lif",
  "5679": "\u2581culture",
  "5680": "iche",
  "5681": "\u2581whatever",
  "5682": "\u2581designed",
  "5683": "\u2581repe",
  "5684": "\u2581Mont",
  "5685": "\u2581charge",
  "5686": "Names",
  "5687": "\u2581insp",
  "5688": "\u2581customers",
  "5689": "osa",
  "5690": "\u2581daughter",
  "5691": "\u2581East",
  "5692": "EQ",
  "5693": "\u2581opin",
  "5694": "\u2581Fre",
  "5695": "\u2581seek",
  "5696": "\u2581push",
  "5697": "\u2581nav",
  "5698": "\u2581burn",
  "5699": "arden",
  "5700": "hash",
  "5701": "\u2581opportunity",
  "5702": "\u2581Mat",
  "5703": "oyal",
  "5704": "\u2581pun",
  "5705": "scale",
  "5706": "ynamic",
  "5707": "\u2581Type",
  "5708": "iling",
  "5709": "\u2581query",
  "5710": "\u2581mist",
  "5711": "ror",
  "5712": "force",
  "5713": "\u2581Once",
  "5714": "\u2581medical",
  "5715": "lie",
  "5716": "\u2581student",
  "5717": "ederal",
  "5718": "\u2581lov",
  "5719": "iform",
  "5720": "\u2581altern",
  "5721": "bin",
  "5722": "oder",
  "5723": "\u2581returns",
  "5724": "register",
  "5725": "uts",
  "5726": "CI",
  "5727": "\u2581Tor",
  "5728": "CR",
  "5729": "\u2581Los",
  "5730": "amily",
  "5731": "aire",
  "5732": "++;",
  "5733": "Controller",
  "5734": "wide",
  "5735": "xx",
  "5736": "rowser",
  "5737": "\u2581Book",
  "5738": "Container",
  "5739": "pload",
  "5740": "\u2581Ev",
  "5741": "\u2581tal",
  "5742": "\u2581theory",
  "5743": "eqnarray",
  "5744": "\u0431\u0435",
  "5745": "\u2581reported",
  "5746": "\u2581meaning",
  "5747": "\u2581sy",
  "5748": "ribe",
  "5749": "icate",
  "5750": "hold",
  "5751": "\u2581offers",
  "5752": "\u2581templ",
  "5753": "css",
  "5754": "\u2581picture",
  "5755": "\u2581async",
  "5756": "\u2581stock",
  "5757": "\u2581internal",
  "5758": "ti",
  "5759": "BO",
  "5760": "Ver",
  "5761": "\u0441\u043f\u043e",
  "5762": "\u2581demon",
  "5763": "\u2581laugh",
  "5764": "\u2581End",
  "5765": "\u2581kon",
  "5766": "\u2581ideas",
  "5767": "\u2581candid",
  "5768": "Mem",
  "5769": "izz",
  "5770": "refix",
  "5771": "\u2581AND",
  "5772": "egen",
  "5773": "El",
  "5774": "\u2581campaign",
  "5775": "Http",
  "5776": "\u2581Rob",
  "5777": "\u0434\u0456",
  "5778": "\u2581bul",
  "5779": "\u2581\u041a\u043e",
  "5780": "\u2581countries",
  "5781": "\u00bb.",
  "5782": "\u2581expression",
  "5783": "\u2581England",
  "5784": "sf",
  "5785": "\u2581certainly",
  "5786": "agen",
  "5787": "\u2581\u0447\u0430",
  "5788": "\u2581ANY",
  "5789": "\u2581connect",
  "5790": "FE",
  "5791": "\u2581android",
  "5792": "\u2581Gold",
  "5793": "\u2581oppos",
  "5794": "overn",
  "5795": "\u2581Commun",
  "5796": ",_",
  "5797": "asion",
  "5798": "La",
  "5799": "\u2581firm",
  "5800": "\u2581Although",
  "5801": "\u2581Good",
  "5802": "\u2581Law",
  "5803": "erve",
  "5804": "\u2581brand",
  "5805": "Min",
  "5806": "fill",
  "5807": "'],",
  "5808": "\u2581Jew",
  "5809": "iler",
  "5810": "ingle",
  "5811": "ithub",
  "5812": "\u2581Div",
  "5813": "\u2581cert",
  "5814": "Height",
  "5815": "rael",
  "5816": "There",
  "5817": "itute",
  "5818": "\u2581amaz",
  "5819": "look",
  "5820": "\u2581SE",
  "5821": "\u2581jo",
  "5822": "\u2581pulled",
  "5823": "\u2581resources",
  "5824": "\u2581Max",
  "5825": "\u2581agreed",
  "5826": "asy",
  "5827": "\u2581treatment",
  "5828": "\"></",
  "5829": "\u043c\u0430\u043d",
  "5830": "\u2581Err",
  "5831": "orig",
  "5832": "cos",
  "5833": "\u2581Maybe",
  "5834": "otal",
  "5835": "\u2581train",
  "5836": "\u2581Service",
  "5837": "\u2581ih",
  "5838": "\u2581spirit",
  "5839": "Comp",
  "5840": "sqrt",
  "5841": "\u2581broad",
  "5842": "}[",
  "5843": "\u2581shape",
  "5844": "\u2581doc",
  "5845": "how",
  "5846": "\u2581tag",
  "5847": "atalog",
  "5848": "sd",
  "5849": "\u2581meas",
  "5850": "\u2581\u0420\u043e",
  "5851": "\u2581exception",
  "5852": "\u2581Tw",
  "5853": "\u2581interesting",
  "5854": "ATA",
  "5855": "\u2581Rel",
  "5856": "\u00e1r",
  "5857": "\u2581useful",
  "5858": "useum",
  "5859": "\u2581bottom",
  "5860": "\u2581otherwise",
  "5861": "\u2581agree",
  "5862": "cht",
  "5863": "then",
  "5864": "\u2581significant",
  "5865": "}/",
  "5866": "\u2581channel",
  "5867": "icial",
  "5868": "\u0442\u0438\u0432",
  "5869": "vare",
  "5870": "\u2581enter",
  "5871": "Eng",
  "5872": "uj",
  "5873": "URE",
  "5874": "queue",
  "5875": "ono",
  "5876": "\u2581contains",
  "5877": "MI",
  "5878": "\u2581nation",
  "5879": "\u2581rules",
  "5880": "fol",
  "5881": "\u2581pa",
  "5882": "arp",
  "5883": "\u2581quiet",
  "5884": "\u2581thus",
  "5885": "ipped",
  "5886": "annot",
  "5887": "udes",
  "5888": "():",
  "5889": "names",
  "5890": "\u2581compos",
  "5891": "\u2581inj",
  "5892": "una",
  "5893": "bind",
  "5894": "\u2581fully",
  "5895": "ras",
  "5896": "Utils",
  "5897": "anges",
  "5898": "dule",
  "5899": "\u2581Christian",
  "5900": "\u2581reve",
  "5901": "\u00e4nd",
  "5902": "\u2581collect",
  "5903": "\u2581celebr",
  "5904": "anda",
  "5905": "\u00edn",
  "5906": "join",
  "5907": "\u2581paid",
  "5908": "Core",
  "5909": "Ge",
  "5910": ".$",
  "5911": "\u2581fif",
  "5912": "\u2581uma",
  "5913": "\u2581~",
  "5914": "ervices",
  "5915": "\u2581recently",
  "5916": "desc",
  "5917": "\u2581heavy",
  "5918": "\u2581rule",
  "5919": "\u2581Please",
  "5920": "psi",
  "5921": "\u2581console",
  "5922": "\u2581fort",
  "5923": ".\\",
  "5924": "\u2581Washington",
  "5925": "\u2581gar",
  "5926": "\u2581Group",
  "5927": "\u2581interview",
  "5928": "anned",
  "5929": "sql",
  "5930": "\u2581anc",
  "5931": "\u0458\u0430",
  "5932": "Pack",
  "5933": "\u2581Club",
  "5934": "\u2581mask",
  "5935": "\u2581concept",
  "5936": "\u2581['",
  "5937": "\u2581selected",
  "5938": "\u2581Use",
  "5939": "\u2581ele",
  "5940": "ears",
  "5941": "\u2581race",
  "5942": "hy",
  "5943": "Om",
  "5944": "\u2581steps",
  "5945": "ila",
  "5946": "ests",
  "5947": "eds",
  "5948": "\u2581street",
  "5949": "ners",
  "5950": "\u2581birth",
  "5951": "pop",
  "5952": "\u2581\u043b\u0438",
  "5953": "MB",
  "5954": "\u043a\u0440\u0430",
  "5955": "cir",
  "5956": "epsilon",
  "5957": "\u2581constant",
  "5958": "ques",
  "5959": "adas",
  "5960": "\u2581knows",
  "5961": "\u2581Py",
  "5962": "cles",
  "5963": "\u2581cit",
  "5964": "\u2581pair",
  "5965": "inese",
  "5966": "\u2581Peter",
  "5967": "\u2581finished",
  "5968": "\u2581master",
  "5969": "\u2581twenty",
  "5970": "\u2581fell",
  "5971": "\u2581central",
  "5972": "\u2581mes",
  "5973": "rev",
  "5974": "STAT",
  "5975": "stat",
  "5976": "\u2581allows",
  "5977": "\u2581gro",
  "5978": "Click",
  "5979": "\u2581stories",
  "5980": "Fe",
  "5981": "\u00e5r",
  "5982": "\u2581baby",
  "5983": "encia",
  "5984": "\u2581einer",
  "5985": "Are",
  "5986": "ebug",
  "5987": "store",
  "5988": "\",\"",
  "5989": "lam",
  "5990": "\u2581sv",
  "5991": "\u0446\u0438\u0438",
  "5992": "NULL",
  "5993": "\u2581Leg",
  "5994": "\u2581movie",
  "5995": "\u2581hous",
  "5996": "\u2581learned",
  "5997": "bon",
  "5998": "\u2581transfer",
  "5999": "ifornia",
  "6000": "psilon",
  "6001": "\u2581Soft",
  "6002": "\u2581commer",
  "6003": "\u2581hadn",
  "6004": "\u2581Ein",
  "6005": "\u2581Two",
  "6006": "craft",
  "6007": "Process",
  "6008": "\u2581\u043f\u043e\u0434",
  "6009": "argin",
  "6010": "\u2581estim",
  "6011": "\u2581Mem",
  "6012": "ika",
  "6013": "\u2581Tod",
  "6014": "duc",
  "6015": "\u2581danger",
  "6016": "rive",
  "6017": "Don",
  "6018": "\u2581Que",
  "6019": "hal",
  "6020": "\u2581mm",
  "6021": "\u2581Sur",
  "6022": "Order",
  "6023": "\u2581distribution",
  "6024": "fa",
  "6025": "\u2581Many",
  "6026": "plicit",
  "6027": "Empty",
  "6028": "Handle",
  "6029": "\u2581token",
  "6030": "\u2581epis",
  "6031": "\u2581assist",
  "6032": "\u2581purpose",
  "6033": "\u2581\u0446",
  "6034": "NU",
  "6035": "iders",
  "6036": "rate",
  "6037": "They",
  "6038": "Parameter",
  "6039": "Dec",
  "6040": "\u2581strugg",
  "6041": "\u2581shoot",
  "6042": "IV",
  "6043": "\u2581Great",
  "6044": "\u2581Sil",
  "6045": "\u2581loved",
  "6046": "\u2581click",
  "6047": "\u2581reserv",
  "6048": "\u2581\u0432\u0435",
  "6049": "\u2581spread",
  "6050": "\u2581og",
  "6051": "\u2581${",
  "6052": "\u2581miles",
  "6053": "\u2581successful",
  "6054": "oj",
  "6055": "\u2581Direct",
  "6056": "\u2581ax",
  "6057": "\u2581growth",
  "6058": "Work",
  "6059": "\u2581church",
  "6060": "Inst",
  "6061": "ICE",
  "6062": "sten",
  "6063": "\u0440\u043e\u0434",
  "6064": "\u2581Center",
  "6065": "ses",
  "6066": "got",
  "6067": "delete",
  "6068": "\u2581Ma",
  "6069": "%%",
  "6070": "\u2581crow",
  "6071": "DF",
  "6072": "front",
  "6073": "\u2581blog",
  "6074": "\u2581computer",
  "6075": "\u043d\u0430\u044f",
  "6076": "\u2581mir",
  "6077": "\u2581Super",
  "6078": "','",
  "6079": "\u2581multi",
  "6080": "\u2581gru",
  "6081": "\u2581Jo",
  "6082": "\u2581Canada",
  "6083": "\u2581Thomas",
  "6084": "\u2581larger",
  "6085": "\u2581compar",
  "6086": "Current",
  "6087": "that",
  "6088": "\u2581drop",
  "6089": "\u0435\u043d\u0442",
  "6090": "\u2581Republic",
  "6091": "\u2581dise",
  "6092": "\u2581effects",
  "6093": "\u2581girls",
  "6094": "encies",
  "6095": "ellig",
  "6096": "\u2581Note",
  "6097": "\u2581Associ",
  "6098": "\u2581uses",
  "6099": "elled",
  "6100": "\u2581warm",
  "6101": "thread",
  "6102": "font",
  "6103": "\u2581zum",
  "6104": "\u2581follows",
  "6105": "\u2581whom",
  "6106": "TA",
  "6107": "\u2581wild",
  "6108": "\u2581AR",
  "6109": "iable",
  "6110": "\u2581True",
  "6111": "Position",
  "6112": "\u2581sell",
  "6113": "cher",
  "6114": "\u2581Bus",
  "6115": "\u2581lean",
  "6116": "ACE",
  "6117": "\u2581served",
  "6118": "hw",
  "6119": "\u2581Cur",
  "6120": "\u2581north",
  "6121": "Dat",
  "6122": "\u2581>>",
  "6123": "command",
  "6124": "atz",
  "6125": "\u2581mal",
  "6126": "\u0441\u0442\u0430\u0432",
  "6127": "\u2581Press",
  "6128": "\u2581characters",
  "6129": "\u2581zero",
  "6130": "AGE",
  "6131": "rapper",
  "6132": "\u2581kitchen",
  "6133": "aming",
  "6134": "\u2581restr",
  "6135": "XX",
  "6136": "\u2581College",
  "6137": "\u2581Array",
  "6138": "\u2581fresh",
  "6139": "\u2581shift",
  "6140": "\u2581specified",
  "6141": "plete",
  "6142": "ITE",
  "6143": "\u2581Camp",
  "6144": "rial",
  "6145": "cb",
  "6146": "\u2581TH",
  "6147": "IB",
  "6148": "osen",
  "6149": "\u2581\u00fa",
  "6150": "\u2581params",
  "6151": "ignment",
  "6152": "adding",
  "6153": "\u2581degree",
  "6154": "Local",
  "6155": "Oh",
  "6156": "\u2581zur",
  "6157": "\u2581levels",
  "6158": "CS",
  "6159": "finished",
  "6160": "Case",
  "6161": "riage",
  "6162": "Vector",
  "6163": "\u2581sea",
  "6164": "antic",
  "6165": "\u2581League",
  "6166": "\u2581therefore",
  "6167": "One",
  "6168": "Return",
  "6169": "Access",
  "6170": "vas",
  "6171": "\u2581\u043e\u0441",
  "6172": "\u2581rat",
  "6173": "Big",
  "6174": "\u2581behavior",
  "6175": "kr",
  "6176": "\u2581undefined",
  "6177": "\u2581Es",
  "6178": "\u2581appeared",
  "6179": "eles",
  "6180": "\u2581WAR",
  "6181": "Stat",
  "6182": "\u2581Google",
  "6183": "\u2581credit",
  "6184": "\u2581File",
  "6185": "anging",
  "6186": "house",
  "6187": "romise",
  "6188": "gent",
  "6189": "\u2581habit",
  "6190": "\u2581society",
  "6191": "\u2581encour",
  "6192": "\u2581paint",
  "6193": "pet",
  "6194": "\u2581UK",
  "6195": "aws",
  "6196": "onom",
  "6197": "Gl",
  "6198": "}_{\\",
  "6199": "eless",
  "6200": "emy",
  "6201": "\u2581Cong",
  "6202": "\u2581developed",
  "6203": "\u2581images",
  "6204": "\u2581\u00f6",
  "6205": "\u2581font",
  "6206": "clear",
  "6207": "gin",
  "6208": "\u2581Lord",
  "6209": "\u2581transport",
  "6210": "\u2581::",
  "6211": "\u2581cup",
  "6212": "ulate",
  "6213": "\u2581During",
  "6214": "priv",
  "6215": "\u2581extrem",
  "6216": "\u2581Di",
  "6217": "\u2581doubt",
  "6218": "Py",
  "6219": "ifying",
  "6220": "split",
  "6221": "ego",
  "6222": "github",
  "6223": "\u2581),",
  "6224": "ROM",
  "6225": "\u2581chair",
  "6226": "\u2581trade",
  "6227": "\u2581nicht",
  "6228": "Top",
  "6229": "Store",
  "6230": "\u2581parte",
  "6231": "project",
  "6232": "nia",
  "6233": "\u2581\u0432\u0456\u0434",
  "6234": "war",
  "6235": "\u2581Prof",
  "6236": "\u2581caught",
  "6237": "Thread",
  "6238": "\u0441\u0442\u0432\u0430",
  "6239": "author",
  "6240": "\u2581doll",
  "6241": "\u2581harm",
  "6242": "\u2581Gen",
  "6243": "tree",
  "6244": "etime",
  "6245": "cfg",
  "6246": "\u2581guys",
  "6247": "\u2581California",
  "6248": "\u2581Green",
  "6249": "\u2581movement",
  "6250": "iej",
  "6251": "\u2581statement",
  "6252": "\u2581seeing",
  "6253": "\u2581haven",
  "6254": "vention",
  "6255": "SL",
  "6256": "chedul",
  "6257": "iert",
  "6258": "\u2581primary",
  "6259": "\u2581civil",
  "6260": "rian",
  "6261": "\u2581button",
  "6262": "\u2581lived",
  "6263": "Pass",
  "6264": "sor",
  "6265": "\u2581watching",
  "6266": "\u2581skills",
  "6267": "tee",
  "6268": "Level",
  "6269": "\u2581scient",
  "6270": "hs",
  "6271": "\u2581agre",
  "6272": "cat",
  "6273": "\u2581tend",
  "6274": "\u2581Mill",
  "6275": "\u2581Cap",
  "6276": "ORD",
  "6277": "gle",
  "6278": "\u2581\u0441\u0432\u043e",
  "6279": "\u00bb,",
  "6280": "\u2581ahead",
  "6281": "vest",
  "6282": "\u2581Jose",
  "6283": "ischer",
  "6284": "\u0219i",
  "6285": "\u2581leaving",
  "6286": "\u2581\u0434\u043b\u044f",
  "6287": "\u2581south",
  "6288": "\u2581consum",
  "6289": "Range",
  "6290": "\u2581activities",
  "6291": "Sec",
  "6292": "\u2581sales",
  "6293": "\u2581fix",
  "6294": "\u2581jed",
  "6295": "rum",
  "6296": "vector",
  "6297": "\u2581spot",
  "6298": "\u2581manufact",
  "6299": "\u043a\u0442",
  "6300": "orrow",
  "6301": "sign",
  "6302": "\u2581college",
  "6303": "\u2581driver",
  "6304": "\u2581definitely",
  "6305": "\u2581spend",
  "6306": "mission",
  "6307": "\u0437\u0443",
  "6308": "atively",
  "6309": "bi",
  "6310": "Callback",
  "6311": "\u2581particularly",
  "6312": "\u2581hell",
  "6313": "\u2581pool",
  "6314": "PRE",
  "6315": "\u2581clearly",
  "6316": "PT",
  "6317": "othes",
  "6318": "\u2581Id",
  "6319": "Location",
  "6320": "\u2581Run",
  "6321": "\u2581fixed",
  "6322": "\u2581Hand",
  "6323": "bal",
  "6324": "double",
  "6325": "Can",
  "6326": "Omega",
  "6327": "\u2581challeng",
  "6328": "\u2581standing",
  "6329": "iten",
  "6330": "\u2581mechan",
  "6331": "\u2581durch",
  "6332": "\u2581dell",
  "6333": "\u2581raised",
  "6334": "\u2581weak",
  "6335": "\u2581Du",
  "6336": "grad",
  "6337": "\u2581scene",
  "6338": "poss",
  "6339": "\u2581ton",
  "6340": "\u2581earth",
  "6341": "ulations",
  "6342": "\u2581strength",
  "6343": "aked",
  "6344": "\u2581remain",
  "6345": "\u2581Bi",
  "6346": "\u2581customer",
  "6347": "range",
  "6348": "\u2581interested",
  "6349": "ONE",
  "6350": "\u2581coff",
  "6351": "require",
  "6352": "\u2581Only",
  "6353": "\u2581Web",
  "6354": "\u2581farm",
  "6355": "\u2581activity",
  "6356": "\u2581rout",
  "6357": "bling",
  "6358": "SY",
  "6359": "\u2581Richard",
  "6360": "\u2581Ref",
  "6361": "\u2581\u043a\u043e\u043d",
  "6362": "\u2581jun",
  "6363": "born",
  "6364": "ijn",
  "6365": "Configuration",
  "6366": "uman",
  "6367": "EE",
  "6368": "\u2581married",
  "6369": "\u2581\u0417\u0430",
  "6370": "\u2581fat",
  "6371": "\u2581kid",
  "6372": "\u2581Tur",
  "6373": "\u2581offered",
  "6374": "nic",
  "6375": "\u2581Big",
  "6376": "Gamma",
  "6377": "\u2581Health",
  "6378": "\u2581TR",
  "6379": "\u2581si\u0119",
  "6380": "\u2581construction",
  "6381": "\u2581Church",
  "6382": "\u2581Bet",
  "6383": "bus",
  "6384": "\u2581earn",
  "6385": "rict",
  "6386": "\u2581\u043f\u0440\u0430",
  "6387": "\u2581brain",
  "6388": "\u2581fra",
  "6389": "\u2581Op",
  "6390": "FIG",
  "6391": "ema",
  "6392": "\u2581European",
  "6393": "\u2581Saint",
  "6394": "ARE",
  "6395": "uri",
  "6396": "\u2581River",
  "6397": "{}",
  "6398": "\u2581sitting",
  "6399": "\u2581understanding",
  "6400": "\u2581plans",
  "6401": "ropri",
  "6402": "\u2581older",
  "6403": "\u2581pressure",
  "6404": "Impl",
  "6405": "\u2581peace",
  "6406": "Connection",
  "6407": "\u2581fi",
  "6408": "rich",
  "6409": "\u2581shut",
  "6410": "apers",
  "6411": "Port",
  "6412": "\u2581Look",
  "6413": "rim",
  "6414": "auth",
  "6415": "auto",
  "6416": "\u2581highly",
  "6417": "\u2581unless",
  "6418": "\u2581Wal",
  "6419": "\u2581ren",
  "6420": "ws",
  "6421": "\u2581core",
  "6422": "(-",
  "6423": "\u2581clim",
  "6424": "ruit",
  "6425": "\u2581callback",
  "6426": "hest",
  "6427": "\u2581Charles",
  "6428": "\u2581Long",
  "6429": "}=",
  "6430": "\u044a\u0440",
  "6431": "\u2581shared",
  "6432": "ulated",
  "6433": "gorithm",
  "6434": "\u2581Home",
  "6435": "\u2581village",
  "6436": "ees",
  "6437": "sv",
  "6438": "\u2581restaur",
  "6439": "rey",
  "6440": "\u2581Cast",
  "6441": "\u2581Person",
  "6442": "\u043a\u0438\u0439",
  "6443": "\u2581organiz",
  "6444": "\u2581Rad",
  "6445": "ponents",
  "6446": "\u2581werden",
  "6447": "\u2581bow",
  "6448": "sen",
  "6449": "ami",
  "6450": "Interface",
  "6451": "\u2581basis",
  "6452": "\u2581Company",
  "6453": "ernel",
  "6454": "itu",
  "6455": "Hash",
  "6456": "\u2581aan",
  "6457": "\u2581\u0445",
  "6458": "\u2581smile",
  "6459": "xml",
  "6460": "\u2581scen",
  "6461": "amm",
  "6462": "tool",
  "6463": "aria",
  "6464": "\u2581accur",
  "6465": "settings",
  "6466": "\u2581Jesus",
  "6467": "acement",
  "6468": "power",
  "6469": "(!",
  "6470": "\u2581calls",
  "6471": "\u2581basic",
  "6472": "\u2581settings",
  "6473": "ript",
  "6474": "pool",
  "6475": "ctors",
  "6476": "\u2581Foundation",
  "6477": "\u2581weap",
  "6478": "KEY",
  "6479": "foot",
  "6480": "\u2581radio",
  "6481": "\u2581helped",
  "6482": "mann",
  "6483": "\u2581jump",
  "6484": "\u2581tick",
  "6485": "\u2581growing",
  "6486": "aten",
  "6487": "real",
  "6488": "\u2581increasing",
  "6489": "Device",
  "6490": "varepsilon",
  "6491": "\u2581sets",
  "6492": "\u2581advant",
  "6493": "Open",
  "6494": "\u2581reasons",
  "6495": "\u2581supposed",
  "6496": "oes",
  "6497": "ede",
  "6498": "teen",
  "6499": "ifdef",
  "6500": "\u2581delete",
  "6501": "\u2581&=",
  "6502": "\u2581Bill",
  "6503": "\u2581aim",
  "6504": "\u2581Ok",
  "6505": "\u2581Av",
  "6506": "reci",
  "6507": "acks",
  "6508": "iste",
  "6509": "Properties",
  "6510": "\u2581tmp",
  "6511": "\u2581dei",
  "6512": "PER",
  "6513": "DC",
  "6514": "sta",
  "6515": "\u043d\u0438\u0438",
  "6516": "\u2581limited",
  "6517": "\u2581greater",
  "6518": "description",
  "6519": "ori",
  "6520": "aints",
  "6521": "\u2581hy",
  "6522": "\u2581Mel",
  "6523": "\u2581CH",
  "6524": "cons",
  "6525": "\u2581surround",
  "6526": "\u2581Who",
  "6527": "arc",
  "6528": "\u2581telev",
  "6529": "itution",
  "6530": "\u2581equal",
  "6531": "\u043a\u0456",
  "6532": "\u2581Israel",
  "6533": "\u00e4h",
  "6534": "\u2581Caption",
  "6535": "\u2581exerc",
  "6536": "empor",
  "6537": "\u2581++",
  "6538": "\u2581lib",
  "6539": "make",
  "6540": "\u2581MA",
  "6541": "copy",
  "6542": "friend",
  "6543": "\u2581\u043a\u043e\u0442\u043e",
  "6544": "\u2581damage",
  "6545": "\u2581\\,",
  "6546": "oded",
  "6547": "\u2581none",
  "6548": "\u2581evalu",
  "6549": "ston",
  "6550": ">,",
  "6551": "FOR",
  "6552": "\u2581norm",
  "6553": "appe",
  "6554": "Session",
  "6555": "\u2581adult",
  "6556": "\u2581hospital",
  "6557": "\u2581recommend",
  "6558": "property",
  "6559": "stein",
  "6560": "final",
  "6561": "\u2581nu",
  "6562": "second",
  "6563": "\u2581aspect",
  "6564": "\")]",
  "6565": "\u0436\u0435\u043d",
  "6566": "amento",
  "6567": "\u2581rac",
  "6568": "save",
  "6569": "\u2581football",
  "6570": "Ab",
  "6571": "ungs",
  "6572": "abil",
  "6573": "\u2581Arch",
  "6574": "system",
  "6575": "hist",
  "6576": "\u2581luck",
  "6577": "render",
  "6578": "\u2581sein",
  "6579": "ioni",
  "6580": "\u2581rot",
  "6581": "\u2581corner",
  "6582": "\u2581appropri",
  "6583": "\u2581Software",
  "6584": "\u2581tele",
  "6585": "Delete",
  "6586": "\u2581According",
  "6587": "\u2581prison",
  "6588": "\u2581lic",
  "6589": "\u2581\u043c\u0438",
  "6590": "term",
  "6591": "sets",
  "6592": "\u2581vel",
  "6593": "\u2581rank",
  "6594": "\u2581existing",
  "6595": "\u2581Vir",
  "6596": "\u2581trip",
  "6597": "\u2581\u043c\u0443",
  "6598": "avax",
  "6599": "\u2581ris",
  "6600": "\u2581define",
  "6601": "\u2581heat",
  "6602": "car",
  "6603": "\u2581convert",
  "6604": "email",
  "6605": "\u2581Under",
  "6606": "\u2581\u0428",
  "6607": "\u2581Grand",
  "6608": "\u2581exists",
  "6609": "sys",
  "6610": "eff",
  "6611": "\u2581Top",
  "6612": "\u2581\u010d",
  "6613": "\u2581tempor",
  "6614": "\u2581arguments",
  "6615": "\u2581supported",
  "6616": "ensed",
  "6617": "\u2581Francis",
  "6618": "\u2581coord",
  "6619": "\u2581achieve",
  "6620": "\u2581Name",
  "6621": "\u2581Jahr",
  "6622": "\u2581Gi",
  "6623": "she",
  "6624": "\u2581Dev",
  "6625": "\u2581alla",
  "6626": "\u2581WIT",
  "6627": "agment",
  "6628": "custom",
  "6629": "alls",
  "6630": "&&",
  "6631": "WE",
  "6632": "\u2581holding",
  "6633": "prototype",
  "6634": "\u2581fing",
  "6635": "\u2581bag",
  "6636": "\u2581Party",
  "6637": "stack",
  "6638": "\u2581economic",
  "6639": "\u2581Gal",
  "6640": "idents",
  "6641": "\u2581Jun",
  "6642": "\u2581showed",
  "6643": "osh",
  "6644": "\u2581Bay",
  "6645": "mail",
  "6646": "\u2581SO",
  "6647": "\u2581\"<",
  "6648": "graphics",
  "6649": "\u2581fu",
  "6650": "click",
  "6651": "\u2581battle",
  "6652": "{{",
  "6653": "\u2581Event",
  "6654": "rior",
  "6655": "chaft",
  "6656": "\u2581favorite",
  "6657": "usive",
  "6658": "support",
  "6659": "bm",
  "6660": "Kind",
  "6661": "\u2581safety",
  "6662": "\u2581Ent",
  "6663": "cup",
  "6664": "\u2581Australia",
  "6665": "\u2581destroy",
  "6666": "\u2581organization",
  "6667": "iden",
  "6668": "################",
  "6669": "dec",
  "6670": "\u2581za",
  "6671": "\u2581seven",
  "6672": "arely",
  "6673": "\u2581flag",
  "6674": "Dir",
  "6675": "\u2581Carl",
  "6676": "\u2581doctor",
  "6677": "\u2581variety",
  "6678": "\u2581Lin",
  "6679": "\u2581tom",
  "6680": "^{(",
  "6681": "Bo",
  "6682": "antes",
  "6683": "\u2581mine",
  "6684": "\u2581Mit",
  "6685": "\u2581describe",
  "6686": "Args",
  "6687": "LS",
  "6688": "API",
  "6689": "\u2581Luc",
  "6690": "phone",
  "6691": "\u2581science",
  "6692": "\u2581Oper",
  "6693": "Next",
  "6694": "\u2581investig",
  "6695": "\u2581demonstr",
  "6696": "\u2581Govern",
  "6697": "\u2581objects",
  "6698": "\u2581Louis",
  "6699": "\u2581Returns",
  "6700": "\u2581han",
  "6701": "nam",
  "6702": "\u2581comme",
  "6703": "\u2581presence",
  "6704": "\u2581pel",
  "6705": "\u2581detect",
  "6706": ")=",
  "6707": "\u2581Chinese",
  "6708": "\u2581rich",
  "6709": "\u2581classes",
  "6710": "\u2581expand",
  "6711": "\u2581Dom",
  "6712": "\u2581Dec",
  "6713": "sn",
  "6714": "peed",
  "6715": "\u2581Jim",
  "6716": "should",
  "6717": "\u2581Smith",
  "6718": "\u2581pages",
  "6719": "\u2581Jean",
  "6720": "rics",
  "6721": "\u2581Sund",
  "6722": "ads",
  "6723": "\u2581Their",
  "6724": "unicip",
  "6725": "\u0432\u0443",
  "6726": "\u2581download",
  "6727": "\u2581stress",
  "6728": "\u2581Pet",
  "6729": "menu",
  "6730": "reme",
  "6731": "\u2581compared",
  "6732": "Ste",
  "6733": "IND",
  "6734": "container",
  "6735": "\u2581Indian",
  "6736": "oren",
  "6737": "\u2581ses",
  "6738": "\u2581Whe",
  "6739": "\u2581roku",
  "6740": "\u2581established",
  "6741": "\u2581generally",
  "6742": "\u2581fle",
  "6743": "__(",
  "6744": "=\"+",
  "6745": "Var",
  "6746": "\u2581Make",
  "6747": "\u2581removed",
  "6748": "zz",
  "6749": "\u00fcn",
  "6750": "\u2581mix",
  "6751": "erk",
  "6752": "iation",
  "6753": "outer",
  "6754": "SK",
  "6755": "\u2581becomes",
  "6756": "\u2581Hall",
  "6757": "scious",
  "6758": "\u2581watched",
  "6759": "\u2581gather",
  "6760": "\u2581Result",
  "6761": "proof",
  "6762": "pay",
  "6763": "\u2581produced",
  "6764": "\u2581|=",
  "6765": "\u2581border",
  "6766": "\u2581din",
  "6767": "\u2581script",
  "6768": "\u2581actions",
  "6769": "\u2581mas",
  "6770": "\u0449\u0430",
  "6771": "ooth",
  "6772": "\u2581Techn",
  "6773": "Json",
  "6774": "\u2581filled",
  "6775": "\u0434\u0435\u043d",
  "6776": "undle",
  "6777": "\u0441\u0442\u0443",
  "6778": "Tool",
  "6779": "\u2581king",
  "6780": "\u2581ven",
  "6781": "stra",
  "6782": "\u2581predict",
  "6783": "\u2581lui",
  "6784": "\u2581WARRAN",
  "6785": "\u2581Fun",
  "6786": "Script",
  "6787": "\u2581powerful",
  "6788": "\u2581lose",
  "6789": "atically",
  "6790": "\u2581daily",
  "6791": "\u2581ring",
  "6792": "\u2581arrived",
  "6793": "Stack",
  "6794": "scope",
  "6795": "\u2581Back",
  "6796": "elij",
  "6797": "\u2581ze",
  "6798": "keys",
  "6799": "{\"",
  "6800": "VID",
  "6801": "\u2581license",
  "6802": "what",
  "6803": "\u2581proced",
  "6804": "rant",
  "6805": "estival",
  "6806": "agram",
  "6807": "\u2581LO",
  "6808": "\u2581Henry",
  "6809": "\u2581flags",
  "6810": "Down",
  "6811": "scription",
  "6812": "\u2581families",
  "6813": "isse",
  "6814": "bour",
  "6815": "\u2581Bur",
  "6816": "\u2014\"",
  "6817": "\u2581brief",
  "6818": "\u2581creating",
  "6819": "\u2581clients",
  "6820": "rangle",
  "6821": "\u2581amazing",
  "6822": "\u2581sind",
  "6823": "\u2581covered",
  "6824": "Well",
  "6825": "\u0441\u0442\u0435",
  "6826": "\u0442\u043e\u0440",
  "6827": "\u2581Bas",
  "6828": "total",
  "6829": "\u2581Init",
  "6830": "\u2581sand",
  "6831": "Unit",
  "6832": "\u2581murder",
  "6833": "\u2581bright",
  "6834": "\u2581trav",
  "6835": "icans",
  "6836": "\u2581attribute",
  "6837": "fc",
  "6838": "\u2581placed",
  "6839": "EST",
  "6840": "Vari",
  "6841": "\u2581cos",
  "6842": "\u2581attract",
  "6843": "anel",
  "6844": "}).",
  "6845": "bytes",
  "6846": "\u2581parse",
  "6847": "\u2581belong",
  "6848": "BN",
  "6849": "\u2581Sol",
  "6850": "Po",
  "6851": "`,",
  "6852": "\u2581calling",
  "6853": "\u2581?>",
  "6854": "\u2581iter",
  "6855": "\u2581url",
  "6856": "\u2581evening",
  "6857": "reek",
  "6858": "\u2581honest",
  "6859": "\u2581director",
  "6860": "RC",
  "6861": "\u2581solid",
  "6862": "\u2581phil",
  "6863": "iene",
  "6864": "FAULT",
  "6865": "cope",
  "6866": "\u2581History",
  "6867": "\u2581Team",
  "6868": "reedom",
  "6869": "\u2581ru",
  "6870": "UB",
  "6871": "\u2581worse",
  "6872": "imo",
  "6873": "Mat",
  "6874": "\u2581Mex",
  "6875": "actor",
  "6876": "\u2581vor",
  "6877": "\u0442\u044c\u0441\u044f",
  "6878": "\u2581experiment",
  "6879": "\u2581Play",
  "6880": "\u2581Another",
  "6881": "\u2581happens",
  "6882": "uan",
  "6883": "\u2581patients",
  "6884": "\u2581rend",
  "6885": "\u2581Mo",
  "6886": "\u2581Tex",
  "6887": "\u2581wed",
  "6888": "tn",
  "6889": "insert",
  "6890": "\u2581\u043f\u0430",
  "6891": "\u2581anti",
  "6892": "Match",
  "6893": "ampionship",
  "6894": "\u2581forces",
  "6895": "\u2581Hot",
  "6896": "\u2581phase",
  "6897": "\u2581template",
  "6898": "stop",
  "6899": "icated",
  "6900": "\u2581managed",
  "6901": "wait",
  "6902": "\u2581*(",
  "6903": "GB",
  "6904": "\u2581appoint",
  "6905": "\u0142a",
  "6906": "\u2581stick",
  "6907": "\u2581FOR",
  "6908": "\u2581Vis",
  "6909": "tor",
  "6910": "\u2581p\u0159",
  "6911": "quest",
  "6912": "uses",
  "6913": "\");\r",
  "6914": "\u2581suddenly",
  "6915": "\u00e9c",
  "6916": "ND",
  "6917": "urop",
  "6918": "\u0440\u0435\u0434",
  "6919": "\u2581insurance",
  "6920": "access",
  "6921": "unfinished",
  "6922": "\u2581tamb",
  "6923": "\u2581sac",
  "6924": "\u2581Court",
  "6925": "\u2581missing",
  "6926": "\u2581Where",
  "6927": "\u2581Sum",
  "6928": "}^{\\",
  "6929": "\u2581sua",
  "6930": "_,",
  "6931": "\u2581thick",
  "6932": "\u2581Trump",
  "6933": "\u2581operations",
  "6934": "FS",
  "6935": "\u2581deux",
  "6936": "dz",
  "6937": "Template",
  "6938": "\u2581\"/",
  "6939": "\u2581odd",
  "6940": "\u2581reality",
  "6941": "\u2581teams",
  "6942": "\u2581cer",
  "6943": "oma",
  "6944": "\u2581\u0219i",
  "6945": "\u2581cloud",
  "6946": "\u2581Department",
  "6947": "Ne",
  "6948": "\u2581requires",
  "6949": "items",
  "6950": "\u2581III",
  "6951": "rightarrow",
  "6952": ")->",
  "6953": "\u2581writer",
  "6954": "replace",
  "6955": "\u2581thr",
  "6956": "jen",
  "6957": "\u2581ot",
  "6958": "\u2581occup",
  "6959": "\u2581eventually",
  "6960": "\u2581Math",
  "6961": "\u2581conserv",
  "6962": "amer",
  "6963": "\u2581Fort",
  "6964": "\u2581dry",
  "6965": "\u2581sexual",
  "6966": "\u2581costs",
  "6967": "\u2581forms",
  "6968": "\u2581Vict",
  "6969": "PAR",
  "6970": "framework",
  "6971": "\u2581\u0434\u0438",
  "6972": "Operation",
  "6973": "\u0437\u043d\u0430",
  "6974": "which",
  "6975": "\u2581tight",
  "6976": "Invalid",
  "6977": "\u2581partner",
  "6978": "\u2581\u043f\u0440\u0435\u0434",
  "6979": "\u2581thank",
  "6980": "\u2581guard",
  "6981": "hem",
  "6982": "Body",
  "6983": "\u2581emot",
  "6984": "IX",
  "6985": "fast",
  "6986": "\u0449\u043e",
  "6987": "\u00f1o",
  "6988": "night",
  "6989": "\u2581Sci",
  "6990": "\u043d\u0438\u043a\u0430",
  "6991": "\u2581TO",
  "6992": "\u2581individuals",
  "6993": "\u0441\u0441\u0438",
  "6994": "}),",
  "6995": "False",
  "6996": "(\"%",
  "6997": "\u2581optim",
  "6998": "\u2581-->",
  "6999": "\u2581factor",
  "7000": "\u2581smaller",
  "7001": "\u2581contain",
  "7002": "spect",
  "7003": "Engine",
  "7004": "\u2581announced",
  "7005": "\u2581Democr",
  "7006": "\u2581rob",
  "7007": "\u2581flat",
  "7008": "osoph",
  "7009": "Search",
  "7010": "ahl",
  "7011": "\u2581Exception",
  "7012": "\u2581Ol",
  "7013": "equals",
  "7014": "\u2581unter",
  "7015": "shape",
  "7016": "NS",
  "7017": "Obj",
  "7018": "\u2581species",
  "7019": "weight",
  "7020": "you",
  "7021": "\u2581este",
  "7022": "\u2581View",
  "7023": "\u2581mission",
  "7024": "\u2581journal",
  "7025": "Values",
  "7026": "\u2581einem",
  "7027": "ismo",
  "7028": "\u2581projects",
  "7029": "\u2581Das",
  "7030": "rible",
  "7031": "\u2581serve",
  "7032": "\u2581opening",
  "7033": "\u2581hur",
  "7034": "\u2581programs",
  "7035": "\u2581USA",
  "7036": "iliar",
  "7037": "idos",
  "7038": "Br",
  "7039": "estamp",
  "7040": "\u2581tools",
  "7041": "anner",
  "7042": "RT",
  "7043": "\u2581Start",
  "7044": "\u2581bath",
  "7045": "\u2581coffee",
  "7046": "orter",
  "7047": "internal",
  "7048": "files",
  "7049": "INVAL",
  "7050": "ako",
  "7051": "dt",
  "7052": "\u2581Second",
  "7053": "\u2581alloc",
  "7054": "\u2581ended",
  "7055": "acional",
  "7056": "\u2581manager",
  "7057": "\u2581Sun",
  "7058": "agg",
  "7059": "\u2581leader",
  "7060": "olved",
  "7061": "\u2581\u0447\u0442\u043e",
  "7062": "\u2581traditional",
  "7063": "shot",
  "7064": "rup",
  "7065": "CF",
  "7066": "\u2581Each",
  "7067": "wr",
  "7068": "\u2581Som",
  "7069": "\u2581materials",
  "7070": "\u2581msg",
  "7071": "\u2581syn",
  "7072": "\u2581produce",
  "7073": "\u2581storage",
  "7074": "subsection",
  "7075": "\u2581Sie",
  "7076": "\u2581IP",
  "7077": "CESS",
  "7078": "\u2581wa",
  "7079": "Record",
  "7080": "\u2581marketing",
  "7081": "plet",
  "7082": "Dialog",
  "7083": "\u2581mentioned",
  "7084": "\u2581Na",
  "7085": "\u2581Union",
  "7086": "\u2581API",
  "7087": "\u2581negative",
  "7088": "txt",
  "7089": "\u2581easier",
  "7090": "legal",
  "7091": "Dep",
  "7092": "\u2581novel",
  "7093": "eur",
  "7094": "aci\u00f3",
  "7095": "\u2581Bud",
  "7096": "\u2581carry",
  "7097": "schaft",
  "7098": "\u2581broken",
  "7099": "\u2581trees",
  "7100": ">();",
  "7101": "\u2581emb",
  "7102": "ieder",
  "7103": "\u2581route",
  "7104": "ikel",
  "7105": "\u2581listen",
  "7106": "ashion",
  "7107": "\u2581Mrs",
  "7108": "\u2581equipment",
  "7109": "agger",
  "7110": "\u2581Thus",
  "7111": "\u2581matrix",
  "7112": "alla",
  "7113": "\u2581Tour",
  "7114": "\u2581conversation",
  "7115": "Mon",
  "7116": "ournal",
  "7117": "\u2581minute",
  "7118": "Am",
  "7119": "Api",
  "7120": "\u2581forget",
  "7121": "Me",
  "7122": "levant",
  "7123": "temp",
  "7124": "\u2581telling",
  "7125": "move",
  "7126": "\u2581independent",
  "7127": "toString",
  "7128": "edit",
  "7129": "\u2581Jac",
  "7130": "azz",
  "7131": "react",
  "7132": "\u2581cin",
  "7133": "\u2581Prov",
  "7134": "isted",
  "7135": "\u2581hash",
  "7136": "onna",
  "7137": "iki",
  "7138": "\u2581generated",
  "7139": "Render",
  "7140": "\u2581psych",
  "7141": "nav",
  "7142": "\u2581entr",
  "7143": "\u043f\u0440\u0430",
  "7144": "rx",
  "7145": "ATH",
  "7146": "\u2581assume",
  "7147": "Tree",
  "7148": "sembly",
  "7149": "\u2581Matt",
  "7150": "caption",
  "7151": "\u2581solutions",
  "7152": "\u2581faith",
  "7153": "\u2581digital",
  "7154": "\u2581excell",
  "7155": "\u2581Version",
  "7156": "Debug",
  "7157": "\u2581\u0436\u0438",
  "7158": "\u2581carried",
  "7159": "reset",
  "7160": "\u2581slowly",
  "7161": "ancing",
  "7162": "\u2581owner",
  "7163": "\u2581Ter",
  "7164": "\u2581Did",
  "7165": "\u2581gest",
  "7166": "\u2581\u00e9t\u00e9",
  "7167": "\u2581proof",
  "7168": "Font",
  "7169": "\u2581nob",
  "7170": "Co",
  "7171": "\u2581GNU",
  "7172": "\u2581liber",
  "7173": "itness",
  "7174": "\u2581hij",
  "7175": "\u2581vert",
  "7176": "\u0448\u0430",
  "7177": "FLAG",
  "7178": "MENT",
  "7179": "\u2581Son",
  "7180": "Mult",
  "7181": "\u2581district",
  "7182": "connect",
  "7183": "jection",
  "7184": "lymp",
  "7185": "\u2581realized",
  "7186": "mos",
  "7187": "ye",
  "7188": "\u2581render",
  "7189": "rio",
  "7190": "\u2581interpret",
  "7191": "\u2581slightly",
  "7192": "fix",
  "7193": "\u2581studies",
  "7194": "\u2581rid",
  "7195": "atre",
  "7196": "\u2581benefits",
  "7197": "\u2581Face",
  "7198": "ivery",
  "7199": "\u0440\u0438\u044f",
  "7200": "document",
  "7201": "\u2581asking",
  "7202": "Last",
  "7203": "arante",
  "7204": "\u2581Martin",
  "7205": "\u2581Ell",
  "7206": "\u2581vector",
  "7207": "\u2581forced",
  "7208": "\u043e\u043b\u043e",
  "7209": "PH",
  "7210": "WR",
  "7211": "\u2581Kl",
  "7212": "\u2581sky",
  "7213": "\u2581strategy",
  "7214": "ocked",
  "7215": "\u2581neck",
  "7216": "\u015bci",
  "7217": "OUT",
  "7218": ")),",
  "7219": "Custom",
  "7220": "\u2581wie",
  "7221": "\u2581sweet",
  "7222": "\u2581temp",
  "7223": "\u2581foreign",
  "7224": "\u2581hall",
  "7225": "astr",
  "7226": "Ass",
  "7227": "MODE",
  "7228": "\u2581maximum",
  "7229": "annels",
  "7230": "\u2581tip",
  "7231": "\u2581seconds",
  "7232": "\u2581stack",
  "7233": "iga",
  "7234": "\u2581raise",
  "7235": "enable",
  "7236": "oir",
  "7237": "\u2581soul",
  "7238": "Ke",
  "7239": ")$.",
  "7240": "\u2581Tim",
  "7241": "ALSE",
  "7242": "iser",
  "7243": "contin",
  "7244": "bel",
  "7245": "\u2581mad",
  "7246": "lichen",
  "7247": "abe",
  "7248": "safe",
  "7249": "\u2581concent",
  "7250": "bound",
  "7251": "\u2581Requ",
  "7252": "switch",
  "7253": "\u2581stone",
  "7254": "\u2581transl",
  "7255": "\u2581vac",
  "7256": "andon",
  "7257": "\u2581Fore",
  "7258": "\u2581sounds",
  "7259": "\u2581Pop",
  "7260": "\u2581HT",
  "7261": "lia",
  "7262": "enter",
  "7263": "\u2581helps",
  "7264": "edy",
  "7265": "\u0441\u0442\u0432\u0435\u043d",
  "7266": "anted",
  "7267": "\u2581Its",
  "7268": "\u2581Step",
  "7269": "Icon",
  "7270": "\u2581EXPECT",
  "7271": "ialized",
  "7272": "Post",
  "7273": "aze",
  "7274": "\u2581Carol",
  "7275": "\u2581req",
  "7276": "\u2581critical",
  "7277": "DS",
  "7278": "\u2581seat",
  "7279": "aped",
  "7280": "\u2581upper",
  "7281": "\u2581Sy",
  "7282": "\u2581explain",
  "7283": "\u2581'./",
  "7284": "utils",
  "7285": "possible",
  "7286": "\u2581dont",
  "7287": "Host",
  "7288": "\u2581approxim",
  "7289": "Async",
  "7290": "\u2581grab",
  "7291": "\u2581sources",
  "7292": "\u2581Mos",
  "7293": "\u2581Germany",
  "7294": "\u2581rub",
  "7295": "CHAN",
  "7296": "\u2581rain",
  "7297": "\u2581truly",
  "7298": "\u2581joined",
  "7299": "\u2581<?",
  "7300": "\u2581Lo",
  "7301": "Description",
  "7302": "akt",
  "7303": "\u2581Ann",
  "7304": "^*",
  "7305": "idae",
  "7306": "(:",
  "7307": "tw",
  "7308": "Mar",
  "7309": "produ",
  "7310": "\u2581spoke",
  "7311": "\u044e\u0442",
  "7312": "\u2581walking",
  "7313": "\u2581nodded",
  "7314": "Props",
  "7315": "Enabled",
  "7316": "irk",
  "7317": "FILE",
  "7318": "equal",
  "7319": "pping",
  "7320": "oli",
  "7321": "EV",
  "7322": "enz",
  "7323": "eting",
  "7324": "\u2581sample",
  "7325": "\u2581artist",
  "7326": "[$",
  "7327": "it\u00e0",
  "7328": "\u0439\u043e",
  "7329": "props",
  "7330": "bu",
  "7331": "\u0435\u0432",
  "7332": "\u2581responsible",
  "7333": "MT",
  "7334": "\u2581caused",
  "7335": "\u2581theme",
  "7336": "\u2581Was",
  "7337": "\u2581Before",
  "7338": "acle",
  "7339": "\u2581\u0440\u043e\u043a\u0443",
  "7340": "cu",
  "7341": "DEV",
  "7342": "\u2581hung",
  "7343": "textbf",
  "7344": "\u2581spin",
  "7345": "\u2581latest",
  "7346": "entially",
  "7347": "\u2581Program",
  "7348": "Metadata",
  "7349": "password",
  "7350": "\u2581hurt",
  "7351": "\u043a\u0441",
  "7352": "\u2581Aus",
  "7353": "sey",
  "7354": "allet",
  "7355": "xF",
  "7356": "\u2581Road",
  "7357": "\u0435\u0442\u0441\u044f",
  "7358": "\u2581rent",
  "7359": "\u0446\u0438\u044f",
  "7360": "\u2581Assert",
  "7361": "\u0456\u043b\u044c",
  "7362": "\u00fcck",
  "7363": "\u2581sites",
  "7364": "Document",
  "7365": "\u2581obtained",
  "7366": "\u2581ci",
  "7367": "\u2581[\"",
  "7368": "\u2581completed",
  "7369": "aset",
  "7370": "raid",
  "7371": "\u2581sorry",
  "7372": "\u2581fab",
  "7373": "\u2581schools",
  "7374": "\u0445\u043e\u0434\u0438",
  "7375": "\u2581scr",
  "7376": "\u2581incor",
  "7377": "\u2581'/",
  "7378": "\u2581spr",
  "7379": "\u2581Text",
  "7380": "\u2581commercial",
  "7381": "ingly",
  "7382": "\u2581opinion",
  "7383": "\u2581Star",
  "7384": "Sign",
  "7385": "\u2581javax",
  "7386": "wi",
  "7387": "lat",
  "7388": "\u2581Key",
  "7389": "varphi",
  "7390": "\u0434\u044b",
  "7391": "\u2581connected",
  "7392": "\u2581adjust",
  "7393": "\u2581Az",
  "7394": "\u2581planning",
  "7395": "---",
  "7396": "Integer",
  "7397": "auf",
  "7398": "expected",
  "7399": "\u2581fant",
  "7400": "\u2581tou",
  "7401": "Parent",
  "7402": "\u2581Lat",
  "7403": "\u2581thoughts",
  "7404": "\u2581Jud",
  "7405": "Parameters",
  "7406": "Gr",
  "7407": "\u0440\u043e\u043c",
  "7408": "IA",
  "7409": "\u2581Bob",
  "7410": "lict",
  "7411": "lan",
  "7412": "omic",
  "7413": "\u2581apart",
  "7414": "\u2581trou",
  "7415": "\u2581appreci",
  "7416": "\u2581Christmas",
  "7417": "irq",
  "7418": "thon",
  "7419": "\u2581Error",
  "7420": "\u2581score",
  "7421": "rome",
  "7422": "\u2581neighbor",
  "7423": "\u2581Mur",
  "7424": "admin",
  "7425": "\u2581Film",
  "7426": "Rect",
  "7427": "\u2581configuration",
  "7428": "\u2581cs",
  "7429": "gun",
  "7430": "channel",
  "7431": "\u2581Report",
  "7432": "\u2581strateg",
  "7433": "\u2581workers",
  "7434": "fields",
  "7435": "Schema",
  "7436": "appa",
  "7437": "olic",
  "7438": "EO",
  "7439": "\u2581Charl",
  "7440": "\u2581Cup",
  "7441": "png",
  "7442": "\u2581Hill",
  "7443": "owe",
  "7444": "\u2581mostly",
  "7445": "\u201d.",
  "7446": "\u2581finish",
  "7447": "\u2581\u0421\u043e",
  "7448": "\u2581stars",
  "7449": "player",
  "7450": "\u2581inner",
  "7451": "component",
  "7452": "tim",
  "7453": "IE",
  "7454": "\u2581ther",
  "7455": "\u2581smart",
  "7456": "\u2581sad",
  "7457": "\u2581Council",
  "7458": "area",
  "7459": "lay",
  "7460": "\u2581\u0431\u0430",
  "7461": "\u2581gradu",
  "7462": "\u2581chem",
  "7463": "\u2581ho",
  "7464": "Select",
  "7465": "\u2581instr",
  "7466": "\u2581kl",
  "7467": "ifications",
  "7468": "Long",
  "7469": "\u2581sobre",
  "7470": "\u2581Old",
  "7471": "west",
  "7472": "},\\",
  "7473": "ingu",
  "7474": "\u2581spring",
  "7475": "\u2581nur",
  "7476": "example",
  "7477": "When",
  "7478": "\u2581advice",
  "7479": "\u2581ult",
  "7480": "ennis",
  "7481": "\u2581Love",
  "7482": "\u2581\"\"",
  "7483": "\u2581increased",
  "7484": "\u2581finding",
  "7485": "irty",
  "7486": "istrict",
  "7487": "\u2581layer",
  "7488": "template",
  "7489": "First",
  "7490": "\u043d\u044b\u043c",
  "7491": "igration",
  "7492": "rency",
  "7493": "owie",
  "7494": "\u2581np",
  "7495": "\u2581selection",
  "7496": "\u2581Nach",
  "7497": "\u2581PRO",
  "7498": "\u2581polic",
  "7499": "\u2581database",
  "7500": "\u2581byte",
  "7501": "\u2581providing",
  "7502": "mac",
  "7503": "\u2581metal",
  "7504": "modules",
  "7505": "\u2581Georg",
  "7506": "\u2581Sa",
  "7507": "\u2581establish",
  "7508": "...\"",
  "7509": "iu",
  "7510": "kin",
  "7511": "\u2581eth",
  "7512": "\u2581Sand",
  "7513": "\u2581Chapter",
  "7514": "\u2581gal",
  "7515": "\u2581ice",
  "7516": "Red",
  "7517": "\u2581dal",
  "7518": "\u2581principal",
  "7519": "Msg",
  "7520": "\u2581remains",
  "7521": "\u043d\u0433",
  "7522": "Title",
  "7523": "Rel",
  "7524": "Display",
  "7525": "Non",
  "7526": "\u2581definition",
  "7527": "\u2581attr",
  "7528": "\u2581signal",
  "7529": "hl",
  "7530": "\u2581sel",
  "7531": "\u2581volume",
  "7532": "\u2581cache",
  "7533": "hens",
  "7534": "\u2581wird",
  "7535": "[\\",
  "7536": "NOT",
  "7537": "\u2581election",
  "7538": "utt",
  "7539": "\u2581Window",
  "7540": "ental",
  "7541": "ifest",
  "7542": "xf",
  "7543": "\u2581\u0420\u0430",
  "7544": "\u2581overall",
  "7545": "blic",
  "7546": "\u2581editor",
  "7547": "aden",
  "7548": "\u2581cart",
  "7549": "Left",
  "7550": "uls",
  "7551": "bing",
  "7552": "Right",
  "7553": "\u2581s\u00e9",
  "7554": "Sim",
  "7555": "\u2581camera",
  "7556": "\u2581fav",
  "7557": "Decl",
  "7558": "spring",
  "7559": "\u2581errors",
  "7560": "Tab",
  "7561": "println",
  "7562": "\u2581Bern",
  "7563": "nab",
  "7564": "\u2581Base",
  "7565": "\u2581auth",
  "7566": "\u2581apparent",
  "7567": "\u2581presented",
  "7568": "\u2581remained",
  "7569": "\u2581wet",
  "7570": "Enc",
  "7571": "INFO",
  "7572": "\u2581Sing",
  "7573": "package",
  "7574": ")));",
  "7575": "\u2581Social",
  "7576": "\u2581Mass",
  "7577": "\u2581despite",
  "7578": "\u2581mobile",
  "7579": "\u2581labor",
  "7580": "Go",
  "7581": "\u2581esp",
  "7582": "\u2581Table",
  "7583": "\u2581expert",
  "7584": "\u2581flex",
  "7585": "\u2581profession",
  "7586": "\u2581pil",
  "7587": "Collection",
  "7588": "LOCK",
  "7589": "\u2581applied",
  "7590": "aller",
  "7591": "orph",
  "7592": "ENSE",
  "7593": "\u2581\u0431\u044b\u043b",
  "7594": "\u2581db",
  "7595": "overline",
  "7596": "\u2581Code",
  "7597": "\u2581bytes",
  "7598": "\u2581trouble",
  "7599": "\u2581\u043d\u0430\u0441\u0435",
  "7600": "DD",
  "7601": "\u2581Year",
  "7602": "mbox",
  "7603": "\u2581keeping",
  "7604": "\u2581kick",
  "7605": "\u00e4ng",
  "7606": "\u2581corresponding",
  "7607": "\u2581library",
  "7608": "\u2581*/\r",
  "7609": "callback",
  "7610": "ums",
  "7611": "\u2581json",
  "7612": "\u2581Mount",
  "7613": "\u2581Stand",
  "7614": "IGHT",
  "7615": "\u2581News",
  "7616": "\u2581comments",
  "7617": "returns",
  "7618": "Cal",
  "7619": "\u2581award",
  "7620": "\u2581bought",
  "7621": "includegraphics",
  "7622": "\u2581\u043b\u0435",
  "7623": "dot",
  "7624": "ronic",
  "7625": "\u2581extremely",
  "7626": "\u2581minor",
  "7627": "ifer",
  "7628": "java",
  "7629": "endar",
  "7630": "layout",
  "7631": "plies",
  "7632": "\u2581buf",
  "7633": "\u2581Island",
  "7634": "\u2581About",
  "7635": "\u2581west",
  "7636": "\u2581Scott",
  "7637": "ACT",
  "7638": "Why",
  "7639": "\u2581largest",
  "7640": "\u2581container",
  "7641": "\u2581temperature",
  "7642": "\u2581\u00a3",
  "7643": "\u2581reduce",
  "7644": "\u2581foi",
  "7645": "han",
  "7646": "\u2581bod",
  "7647": "\u2581Van",
  "7648": "\u2581nullptr",
  "7649": "\u2581dating",
  "7650": "\u2581chain",
  "7651": "Flags",
  "7652": "iento",
  "7653": "sort",
  "7654": "\u2581fan",
  "7655": "\u2581determine",
  "7656": "\u2581wear",
  "7657": "BE",
  "7658": "\u2581appropriate",
  "7659": "\u043b\u0441\u044f",
  "7660": "\u0442\u043e\u0432",
  "7661": "\u2581goals",
  "7662": "\u2581Map",
  "7663": "\u2581Sar",
  "7664": "\u2581Option",
  "7665": "\u2581hate",
  "7666": "\u2581zijn",
  "7667": ",-",
  "7668": "\u2581implied",
  "7669": "bits",
  "7670": "\u2581Men",
  "7671": "skip",
  "7672": "\u2581Mond",
  "7673": "\u2581Hon",
  "7674": "\u2581prove",
  "7675": "van",
  "7676": "\u2581traff",
  "7677": "\u2581intr",
  "7678": "pic",
  "7679": "\u2581dropped",
  "7680": "\u2581werd",
  "7681": "\u2581separate",
  "7682": "isa",
  "7683": "\u2581tab",
  "7684": "tml",
  "7685": "\u2581\"$",
  "7686": "mutex",
  "7687": "\u2581Pan",
  "7688": "serve",
  "7689": "\u2581hotel",
  "7690": "\u2581Last",
  "7691": "step",
  "7692": "\u2581vir",
  "7693": "Rule",
  "7694": "istan",
  "7695": "oting",
  "7696": "arks",
  "7697": "(__",
  "7698": "\u2581els",
  "7699": "Player",
  "7700": "]]",
  "7701": "\u0432\u0438\u0447",
  "7702": "ych",
  "7703": "exception",
  "7704": "=\"../",
  "7705": "\u2581imagine",
  "7706": "\"},",
  "7707": "icago",
  "7708": "eler",
  "7709": "\u2581vs",
  "7710": "\u2581Africa",
  "7711": "\u2581Business",
  "7712": "ocks",
  "7713": "\u2581prz",
  "7714": "\u2581fucking",
  "7715": "\u2581picked",
  "7716": "\u2581\u0432\u0456",
  "7717": "\u2581\",",
  "7718": "\u2581bott",
  "7719": "\u2581failure",
  "7720": "[:",
  "7721": "\u2581Gar",
  "7722": "apes",
  "7723": "uple",
  "7724": "\u2581fer",
  "7725": "\u2581purchase",
  "7726": "\u2581\u043f\u0435\u0440",
  "7727": "\u2581bird",
  "7728": "Widget",
  "7729": "\u2581Sunday",
  "7730": "\u2581Amaz",
  "7731": "\u2581consult",
  "7732": "utsch",
  "7733": "anto",
  "7734": "Storage",
  "7735": "\u2581header",
  "7736": "\u00fchr",
  "7737": "\u2581Ha",
  "7738": "\u2581Association",
  "7739": "\u2581sight",
  "7740": "Cell",
  "7741": "\u2581profile",
  "7742": "\u2581female",
  "7743": "\u00e5n",
  "7744": "\u2581wid",
  "7745": "zn",
  "7746": "Direct",
  "7747": "\u2581stret",
  "7748": "aat",
  "7749": "\u2581patient",
  "7750": "here",
  "7751": "\u2581Atl",
  "7752": "inet",
  "7753": "Definition",
  "7754": "imary",
  "7755": "Policy",
  "7756": "\u2581dut",
  "7757": "\u2581majority",
  "7758": "\u0441\u0456",
  "7759": "\u2581Project",
  "7760": "ById",
  "7761": "\u2581believed",
  "7762": "\u2581Music",
  "7763": "\u0437\u044b",
  "7764": "anti",
  "7765": "\u2581oder",
  "7766": "Channel",
  "7767": "\u2581sle",
  "7768": "\u2581sequence",
  "7769": "\u2581pieces",
  "7770": "\u2581kne",
  "7771": "\u2581absolutely",
  "7772": "\u2581Philip",
  "7773": "abilities",
  "7774": "Que",
  "7775": "\u2581Kar",
  "7776": "Execut",
  "7777": "\u2581Devel",
  "7778": "\u2581electric",
  "7779": "full",
  "7780": "rolled",
  "7781": "Dom",
  "7782": "\u2581river",
  "7783": "\u2581healthy",
  "7784": "\u2581extern",
  "7785": "fit",
  "7786": "\u2581coach",
  "7787": "\u2581Kr",
  "7788": "asta",
  "7789": "Compat",
  "7790": "\u2581exit",
  "7791": "\u2581Const",
  "7792": "after",
  "7793": "\u2581shoulder",
  "7794": "\u2581jobs",
  "7795": "zone",
  "7796": "\u2581sale",
  "7797": "ixel",
  "7798": "\u2581determined",
  "7799": "\u2581anyway",
  "7800": "orf",
  "7801": "\u2581Ger",
  "7802": "allel",
  "7803": "rees",
  "7804": "asm",
  "7805": "ims",
  "7806": "\u2581records",
  "7807": "\u2581corpor",
  "7808": "\u2581intellig",
  "7809": "\u2581Prem",
  "7810": "\u2581driving",
  "7811": "\u2581marriage",
  "7812": "\u2581Thank",
  "7813": "\u2581willing",
  "7814": "MC",
  "7815": "Fields",
  "7816": "Items",
  "7817": "\u2581micro",
  "7818": "\u2581lift",
  "7819": "irection",
  "7820": "Account",
  "7821": "\u2581architect",
  "7822": "track",
  "7823": "\u2581prin",
  "7824": "PA",
  "7825": "\u2581runs",
  "7826": "\u2581Texas",
  "7827": "isher",
  "7828": "ensure",
  "7829": "\u2581Both",
  "7830": "\u043a\u043e\u043c",
  "7831": "\u2581Color",
  "7832": "Register",
  "7833": "\u2581Joe",
  "7834": "geq",
  "7835": "lets",
  "7836": "ading",
  "7837": "\u2581army",
  "7838": "\u2581Bank",
  "7839": "otic",
  "7840": "Product",
  "7841": "import",
  "7842": "\u2581Wed",
  "7843": "\u2581cry",
  "7844": "grade",
  "7845": "dig",
  "7846": "gal",
  "7847": "\u043a\u043b\u0430",
  "7848": "ested",
  "7849": "\u00f5es",
  "7850": "gers",
  "7851": "ologie",
  "7852": "\u0442\u043e\u043c",
  "7853": "razy",
  "7854": "\u2581dinner",
  "7855": "QU",
  "7856": "\u2581fingers",
  "7857": "ULE",
  "7858": "claim",
  "7859": "\u2581advantage",
  "7860": "\u2581variable",
  "7861": "\u2581medic",
  "7862": "\u2581male",
  "7863": "\u2581circum",
  "7864": "\u2581\u043c\u0456",
  "7865": "\u2581internet",
  "7866": "WN",
  "7867": "\u2581lab",
  "7868": "azine",
  "7869": "\u0447\u043d\u043e",
  "7870": "\u2581loop",
  "7871": "\u2581pred",
  "7872": "\u2581consequ",
  "7873": "\u2581balance",
  "7874": "fortun",
  "7875": "\u2581gift",
  "7876": "\u2581drug",
  "7877": "\u2581cash",
  "7878": "\u0441\u043a\u0438\u0445",
  "7879": "rg",
  "7880": "istribut",
  "7881": "\u2581highest",
  "7882": "\u00eame",
  "7883": "emph",
  "7884": "emon",
  "7885": "\u2581performed",
  "7886": "cut",
  "7887": "\u2581closer",
  "7888": "\u2581becoming",
  "7889": "\u2581\"\",",
  "7890": "star",
  "7891": "pub",
  "7892": "\u2581prepar",
  "7893": "\u2581vote",
  "7894": "ilde",
  "7895": "\u2581impress",
  "7896": "\u2581employees",
  "7897": "\u2581einen",
  "7898": "\u2581smooth",
  "7899": "\u2581snow",
  "7900": "\u2581purs",
  "7901": "\u2581voc",
  "7902": "\u2581Microsoft",
  "7903": "PU",
  "7904": "\u2581income",
  "7905": "inos",
  "7906": "\u2581operator",
  "7907": "\u2581equival",
  "7908": "\u2581password",
  "7909": "ci\u00f3n",
  "7910": "success",
  "7911": "\u2581emp",
  "7912": "HOUT",
  "7913": "\u2581ca",
  "7914": "flag",
  "7915": "illy",
  "7916": "crete",
  "7917": "frak",
  "7918": "\u2581hidden",
  "7919": "\u2581\"%",
  "7920": "ERN",
  "7921": "\u0440\u043e\u0432\u0430",
  "7922": "\u2581UN",
  "7923": "roke",
  "7924": "miss",
  "7925": "\u2581split",
  "7926": "Reference",
  "7927": ")$,",
  "7928": "eper",
  "7929": "\u2581NO",
  "7930": "\u2581square",
  "7931": "sur",
  "7932": "\u0447\u0435\u043d",
  "7933": "ester",
  "7934": "\u043d\u044c",
  "7935": "}\"",
  "7936": "rawn",
  "7937": "rule",
  "7938": "\u2581audience",
  "7939": "este",
  "7940": "ems",
  "7941": "ICENSE",
  "7942": "\u2581Ill",
  "7943": "USE",
  "7944": "\u2581bon",
  "7945": "bur",
  "7946": "\u2581sick",
  "7947": "\u2581horse",
  "7948": "\u2581Educ",
  "7949": "\u2581benefit",
  "7950": "\u2581cro",
  "7951": "Application",
  "7952": "\u2581corre",
  "7953": "\u2581guarante",
  "7954": "DATA",
  "7955": "\u2581explained",
  "7956": "TX",
  "7957": "\u2581ont",
  "7958": "\u2581Flor",
  "7959": "\u2581reports",
  "7960": "\u2581Real",
  "7961": "uded",
  "7962": "lean",
  "7963": "\u2581citiz",
  "7964": "\u2581decide",
  "7965": "WS",
  "7966": "\u2581domain",
  "7967": "\u2581reflect",
  "7968": "\u2581minimum",
  "7969": "\u2581legs",
  "7970": "\u2581smiled",
  "7971": "fi",
  "7972": "\u2581pure",
  "7973": "\u2581Custom",
  "7974": "\u2581essential",
  "7975": "\u2581observed",
  "7976": "Bytes",
  "7977": "\u2581ctx",
  "7978": "\u2581rates",
  "7979": "mbre",
  "7980": "\u2581worry",
  "7981": ")^",
  "7982": "\u2581Research",
  "7983": "Root",
  "7984": "Windows",
  "7985": "ulture",
  "7986": "\u2581relative",
  "7987": "\u2581seu",
  "7988": "\u2581nie",
  "7989": "\u2581shook",
  "7990": "iously",
  "7991": "\u2581advert",
  "7992": "See",
  "7993": "\u2581Central",
  "7994": "\u2581batter",
  "7995": "\u2581signed",
  "7996": "TS",
  "7997": "oni",
  "7998": "\u2581prepared",
  "7999": "gate",
  "8000": "\u2581Care",
  "8001": "care",
  "8002": "\u2581supply",
  "8003": "Exp",
  "8004": "bolds",
  "8005": "\u2581trail",
  "8006": "\u2581fish",
  "8007": "\u2581units",
  "8008": "venue",
  "8009": "\u0445\u0438",
  "8010": "\u2581Wood",
  "8011": "\u2581category",
  "8012": "\u2581ble",
  "8013": "\u2581override",
  "8014": "foo",
  "8015": "\u2581influence",
  "8016": "enth",
  "8017": "rij",
  "8018": "\u2581adapt",
  "8019": "icians",
  "8020": "deleted",
  "8021": "\u2581vision",
  "8022": "ctrl",
  "8023": "Lambda",
  "8024": "tp",
  "8025": "mond",
  "8026": "aturday",
  "8027": "normal",
  "8028": "\u2581thousand",
  "8029": "\u2581Profess",
  "8030": "\u2581disease",
  "8031": "clip",
  "8032": "\u2581\u0433\u0440\u0430",
  "8033": "boldsymbol",
  "8034": "OB",
  "8035": "\u2581challenge",
  "8036": "\u2581motion",
  "8037": "\u2581whis",
  "8038": "\u2581leaders",
  "8039": "\u2581colon",
  "8040": "\u2581suit",
  "8041": "mid",
  "8042": "ampion",
  "8043": "\u00e1g",
  "8044": "\u2581views",
  "8045": "\u2581appears",
  "8046": "ancel",
  "8047": "\u2581zwe",
  "8048": "IST",
  "8049": "\u2581leaves",
  "8050": "\u2581enh",
  "8051": "Active",
  "8052": "\u2581dit",
  "8053": "ificate",
  "8054": "matrix",
  "8055": "Expression",
  "8056": "Reader",
  "8057": "\u2581mental",
  "8058": "embre",
  "8059": "\u2581decor",
  "8060": "arts",
  "8061": "\u2581vent",
  "8062": "nel",
  "8063": "lines",
  "8064": "upid",
  "8065": "erved",
  "8066": "\u2581boys",
  "8067": "\u0430\u043b\u044c",
  "8068": "MOD",
  "8069": "isl",
  "8070": "\u2581[[",
  "8071": "phy",
  "8072": "\u2581..",
  "8073": "\u2581agent",
  "8074": "\u2581Services",
  "8075": "\u2581iron",
  "8076": "\u2581components",
  "8077": "\u2581fre",
  "8078": "ictionary",
  "8079": "\u2581tests",
  "8080": ".~\\",
  "8081": "obs",
  "8082": "\u2581\u041c\u0438",
  "8083": "\u2581\u043e\u0431\u043b\u0430",
  "8084": "\u2581assess",
  "8085": "\u2581Friday",
  "8086": "\u2581weather",
  "8087": "kg",
  "8088": "\u0441\u0442\u0440\u0430",
  "8089": ".}",
  "8090": "endant",
  "8091": "anna",
  "8092": "\u2581Japanese",
  "8093": "cmp",
  "8094": "\u2581Army",
  "8095": "onym",
  "8096": "\u2581relax",
  "8097": "dates",
  "8098": "\u2581Russian",
  "8099": "\u2581excellent",
  "8100": "'))",
  "8101": "ILITY",
  "8102": "\u2581showing",
  "8103": "\u2581Daniel",
  "8104": "\u043c\u044f",
  "8105": "\u2581Main",
  "8106": "Phi",
  "8107": "\u2581Rock",
  "8108": "\u2581grew",
  "8109": "\u2581yield",
  "8110": "i\u00e8re",
  "8111": "seg",
  "8112": "}}$",
  "8113": "\u2581strict",
  "8114": "\u2581vehicle",
  "8115": "UD",
  "8116": "AF",
  "8117": "Sw",
  "8118": "\u2581chest",
  "8119": "\u2581officer",
  "8120": "\u2581ear",
  "8121": "HER",
  "8122": "noon",
  "8123": "\u2581journey",
  "8124": "NT",
  "8125": "\u2581divers",
  "8126": "\u2581Finally",
  "8127": "Found",
  "8128": "\u2581AS",
  "8129": "rik",
  "8130": "\u2581constr",
  "8131": "\u2581sust",
  "8132": "account",
  "8133": "\u2581walls",
  "8134": "\u2581entirely",
  "8135": "Iter",
  "8136": "cha",
  "8137": "ishes",
  "8138": "IVE",
  "8139": "\u2581prime",
  "8140": "\u2581\u2026",
  "8141": "xe",
  "8142": "uten",
  "8143": "arse",
  "8144": "\u2581Pa",
  "8145": "pute",
  "8146": "\u00e4l",
  "8147": "\u2581protection",
  "8148": "\u2581keys",
  "8149": "May",
  "8150": "Byte",
  "8151": "Const",
  "8152": "BL",
  "8153": "\u2581\u043f\u0435",
  "8154": "\u2581spl",
  "8155": "\u2581clothes",
  "8156": "ashed",
  "8157": "Mark",
  "8158": "\u00e8me",
  "8159": "\u2581fait",
  "8160": "\u2581introduced",
  "8161": "unlock",
  "8162": "\u2581Instead",
  "8163": "ansion",
  "8164": "region",
  "8165": "\u2581Americans",
  "8166": "\u2581indeed",
  "8167": "widget",
  "8168": "\u2581realize",
  "8169": "\u2581fro",
  "8170": "BIT",
  "8171": "\u2581React",
  "8172": "READ",
  "8173": "asket",
  "8174": "never",
  "8175": "\u2581poll",
  "8176": "icol",
  "8177": "\u2581prev",
  "8178": "\u2581hyp",
  "8179": "\u2581Fur",
  "8180": "cloud",
  "8181": "\u2581Lee",
  "8182": "pling",
  "8183": "\u2581Child",
  "8184": "\u2581ideal",
  "8185": "Selector",
  "8186": "STATUS",
  "8187": "ucture",
  "8188": "\u2581wine",
  "8189": "\u2581possibly",
  "8190": "\u2581putting",
  "8191": "\u2581riv",
  "8192": "\u2581wearing",
  "8193": "\u2581Source",
  "8194": "\u2581Cas",
  "8195": "Changed",
  "8196": "\u2581thanks",
  "8197": "TIME",
  "8198": "\u2581sport",
  "8199": "\u2581Award",
  "8200": "\u2581glad",
  "8201": "\u2581Pass",
  "8202": "\u2581Pos",
  "8203": "sche",
  "8204": "\u2581CD",
  "8205": "\u2581afford",
  "8206": "\u2581Women",
  "8207": "\u2581District",
  "8208": "\u2581identity",
  "8209": "\u2581parties",
  "8210": ":%",
  "8211": "\u2581drag",
  "8212": "\u2581mai",
  "8213": "!(",
  "8214": "langle",
  "8215": "\u2581knowing",
  "8216": "Project",
  "8217": "\u2581regarding",
  "8218": "\u2581Joseph",
  "8219": "\u0433\u0435",
  "8220": "\u2581Dar",
  "8221": "\u2581Hor",
  "8222": "\u2581animals",
  "8223": "\u2581extension",
  "8224": "\u0441\u043a\u0430\u044f",
  "8225": "\u2581Han",
  "8226": "btn",
  "8227": "aciones",
  "8228": "\u2581familiar",
  "8229": "holder",
  "8230": ":\r",
  "8231": "stood",
  "8232": "\u2581liked",
  "8233": "CODE",
  "8234": "\u2581enable",
  "8235": "\u2581ped",
  "8236": "iti",
  "8237": "hab",
  "8238": "DIR",
  "8239": "\u2581beat",
  "8240": "\u0442\u0456",
  "8241": "\u2581Minister",
  "8242": "\u2581py",
  "8243": "Pat",
  "8244": "\u2581exhib",
  "8245": "\u2581Build",
  "8246": "\u2581Field",
  "8247": "ician",
  "8248": "\u2581collabor",
  "8249": "\u2581quarter",
  "8250": "\u2581False",
  "8251": "km",
  "8252": "\u2581virtual",
  "8253": "owa",
  "8254": "\u2581Jon",
  "8255": "amin",
  "8256": "uen",
  "8257": "\u2581\u0438\u043d",
  "8258": "imation",
  "8259": "oving",
  "8260": "\u2581testing",
  "8261": "sect",
  "8262": "ITION",
  "8263": "!\\",
  "8264": "apy",
  "8265": "\u2581transition",
  "8266": "ository",
  "8267": "ODO",
  "8268": "PD",
  "8269": "n\u00e9",
  "8270": "\u2581generate",
  "8271": "\u2581native",
  "8272": "\u2581('",
  "8273": "\u2581elle",
  "8274": "RR",
  "8275": "\u2581hun",
  "8276": "_->",
  "8277": "agnost",
  "8278": "\u2581proposed",
  "8279": "\u2581Game",
  "8280": "\u2581efforts",
  "8281": "\u0432\u044f",
  "8282": "tc",
  "8283": "\u0441\u043a",
  "8284": "\u2581intent",
  "8285": "\u2581Bre",
  "8286": "isc",
  "8287": "\u2581protest",
  "8288": "\u2581holds",
  "8289": "ometry",
  "8290": "\u2581Have",
  "8291": "\u2581detail",
  "8292": "\u2581WITHOUT",
  "8293": "yer",
  "8294": "\u2581Kon",
  "8295": "\u2581noticed",
  "8296": "\u2581requirements",
  "8297": "DEBUG",
  "8298": "kins",
  "8299": "\u2581Span",
  "8300": "\u2581cars",
  "8301": "meta",
  "8302": "\u2581kil",
  "8303": "\u2581Bron",
  "8304": "\u2581experienced",
  "8305": "\u2581remind",
  "8306": "ourse",
  "8307": "\u2581Western",
  "8308": "tered",
  "8309": "\u2581devices",
  "8310": "\u2581pictures",
  "8311": "\u2581tut",
  "8312": "\"`",
  "8313": "\u2581impossible",
  "8314": "\u2581rail",
  "8315": "\u2581feels",
  "8316": "icas",
  "8317": "illing",
  "8318": "\u2581accident",
  "8319": "\u2581'@",
  "8320": "________",
  "8321": "\u2581notes",
  "8322": "oman",
  "8323": "Parser",
  "8324": "\u2581discovered",
  "8325": "\u2581Roman",
  "8326": "\u2581budget",
  "8327": "\u2581guide",
  "8328": "king",
  "8329": "\u2581incred",
  "8330": "olar",
  "8331": "enden",
  "8332": "Desc",
  "8333": "\u2581wave",
  "8334": "\u0431\u043b\u0438",
  "8335": "igt",
  "8336": "\u2581restrict",
  "8337": "\u2581Ret",
  "8338": "\u2581mac",
  "8339": "\u0443\u0440",
  "8340": "BS",
  "8341": "\u00eds",
  "8342": "\u2581generation",
  "8343": "dem",
  "8344": "alo",
  "8345": "\u0431\u0440\u0430",
  "8346": "\u2581ordered",
  "8347": "drop",
  "8348": "\u2581pp",
  "8349": "\u2581Review",
  "8350": "\u2581literally",
  "8351": "\u2581Sir",
  "8352": "\u2581Yeah",
  "8353": "\u2581density",
  "8354": "riz",
  "8355": "inde",
  "8356": "\u2581gain",
  "8357": "\u2581panel",
  "8358": "jet",
  "8359": "\u2581Times",
  "8360": "\u2581nella",
  "8361": "\u2581previously",
  "8362": "points",
  "8363": "Send",
  "8364": "\u2581Brown",
  "8365": "each",
  "8366": "\u2581trigger",
  "8367": "ometimes",
  "8368": "icos",
  "8369": "GR",
  "8370": "Panel",
  "8371": "ogen",
  "8372": "\u2581cm",
  "8373": "ructions",
  "8374": "\u2581kiss",
  "8375": "\u2581solo",
  "8376": "\u2581famous",
  "8377": "ran",
  "8378": "\u043f\u0440\u043e",
  "8379": "\u2581thro",
  "8380": "Graph",
  "8381": "imit",
  "8382": "\u2581Value",
  "8383": "\u2581starts",
  "8384": "ipeline",
  "8385": "hd",
  "8386": "TC",
  "8387": "\u2581discussion",
  "8388": "\u2581truck",
  "8389": "aka",
  "8390": "Only",
  "8391": "\u2581Equ",
  "8392": "\u2581k\u00f6",
  "8393": "\u2581Bes",
  "8394": "\u2581critic",
  "8395": "\u2581propos",
  "8396": "\u2581batt",
  "8397": "\u2581Section",
  "8398": "Show",
  "8399": "gp",
  "8400": "STATE",
  "8401": "POST",
  "8402": "\u2581Nord",
  "8403": "\u2581innov",
  "8404": "\u2581crim",
  "8405": "axis",
  "8406": "\u2581Turn",
  "8407": "conn",
  "8408": "Runtime",
  "8409": "\u2581remaining",
  "8410": "oston",
  "8411": "\u2581\u042d",
  "8412": "\u2581windows",
  "8413": "\u2581Royal",
  "8414": "\u2581vide",
  "8415": "PP",
  "8416": "chron",
  "8417": "\u2581san",
  "8418": "\u2581rise",
  "8419": "\u2581delle",
  "8420": "\u2581Dur",
  "8421": "\u2581rapid",
  "8422": "cert",
  "8423": "LA",
  "8424": "edge",
  "8425": "\u2581\\]",
  "8426": "\u2581entered",
  "8427": "\u2581laws",
  "8428": "\u2581photo",
  "8429": "\u2581applications",
  "8430": "\u2581Berlin",
  "8431": "\u2581arrest",
  "8432": "\u2581federal",
  "8433": "\u2581Russia",
  "8434": "\u2581usual",
  "8435": "\u2581raw",
  "8436": "\u2581pi\u00f9",
  "8437": "\u00eatre",
  "8438": "JSON",
  "8439": "SION",
  "8440": "xture",
  "8441": "istent",
  "8442": "\u2581Power",
  "8443": "Bit",
  "8444": "\u2581capacity",
  "8445": "\u2581cards",
  "8446": "UID",
  "8447": "iments",
  "8448": "\u2581dar",
  "8449": "\u2581Chicago",
  "8450": "\u2581comfortable",
  "8451": "tip",
  "8452": "bas",
  "8453": "\u2581mu",
  "8454": "\u2581enemy",
  "8455": "yan",
  "8456": "\u2581\u0444\u0438",
  "8457": "\u2581updated",
  "8458": "ango",
  "8459": "Ev",
  "8460": "Effect",
  "8461": "osing",
  "8462": "rence",
  "8463": "\u2581Congress",
  "8464": "\u2581defe",
  "8465": "\u2581ip",
  "8466": "\u2581tout",
  "8467": "\u2581freedom",
  "8468": "\u2581ao",
  "8469": "\u2581Therefore",
  "8470": "Edit",
  "8471": "\u2581Virgin",
  "8472": "REE",
  "8473": "argo",
  "8474": "\u2581Dam",
  "8475": "\u2581traffic",
  "8476": "\u00f1os",
  "8477": "\u2581alle",
  "8478": "\u2581depth",
  "8479": "Now",
  "8480": "\u2581sides",
  "8481": "\u2581\u0433\u043e\u0434\u0438",
  "8482": "Descriptor",
  "8483": "\u2581artikel",
  "8484": "\u2581narrow",
  "8485": "___",
  "8486": "kw",
  "8487": "uto",
  "8488": "\u2581Facebook",
  "8489": "tegr",
  "8490": "boolean",
  "8491": "nik",
  "8492": "bd",
  "8493": "Track",
  "8494": "\u2581gran",
  "8495": "reshold",
  "8496": "\u0432\u0435\u0442",
  "8497": "wrap",
  "8498": "\u2581noise",
  "8499": "igu",
  "8500": "\u2581Bon",
  "8501": "\u2581wy",
  "8502": "linux",
  "8503": "cks",
  "8504": "\u2581fans",
  "8505": "\u2581mach",
  "8506": "\u2581prices",
  "8507": "\u00e9v",
  "8508": "outs",
  "8509": "standing",
  "8510": "\u2581categ",
  "8511": ";\\",
  "8512": "\u2581decre",
  "8513": "\u2581Saturday",
  "8514": "\u2581menu",
  "8515": "\u2581Nov",
  "8516": "\u2581Yet",
  "8517": "\u2581\u0442\u0430\u043a",
  "8518": "liche",
  "8519": "\u2581Academ",
  "8520": "\u2581communication",
  "8521": "using",
  "8522": "\u2581Society",
  "8523": "\u2581nuc",
  "8524": "pective",
  "8525": "orial",
  "8526": "\u2581afraid",
  "8527": "\u2581animal",
  "8528": "\u2581turning",
  "8529": "dst",
  "8530": "mathfrak",
  "8531": "lers",
  "8532": "\u2581lots",
  "8533": "\u2581\u00e1",
  "8534": "\u2581Tra",
  "8535": "np",
  "8536": "\u2581rose",
  "8537": "\u2581GL",
  "8538": "\u2581helping",
  "8539": "\u2581winter",
  "8540": "\u2581\u043a\u043e\u043c",
  "8541": "Mock",
  "8542": "\u2581investment",
  "8543": "Use",
  "8544": "\u2581Canad",
  "8545": "\u043d\u0434",
  "8546": "Copy",
  "8547": "\u2581fly",
  "8548": "SER",
  "8549": "\u2581Far",
  "8550": "\u2581Ros",
  "8551": "amil",
  "8552": "\u2581fighting",
  "8553": "\u2581religious",
  "8554": "super",
  "8555": "screen",
  "8556": "\u2581furn",
  "8557": "\u2581surprised",
  "8558": "\u2581replied",
  "8559": "Activity",
  "8560": "\u2581Down",
  "8561": "\u2581insert",
  "8562": "\u2581Olymp",
  "8563": "\u2581pointed",
  "8564": "\u2581Card",
  "8565": "driver",
  "8566": "\u2581Da",
  "8567": "!--",
  "8568": "roud",
  "8569": "undo",
  "8570": "\u2581messages",
  "8571": "\u2581Point",
  "8572": "VM",
  "8573": "\u2581plane",
  "8574": "xc",
  "8575": "\u2581television",
  "8576": "\u0451\u043d",
  "8577": "\u2581thousands",
  "8578": "\u2581cris",
  "8579": "\u2581delay",
  "8580": "\u2581Next",
  "8581": "\u2581nombre",
  "8582": "\u2581tu",
  "8583": "\u2581skip",
  "8584": "road",
  "8585": "istration",
  "8586": "\u2581tur",
  "8587": "\u2581Develop",
  "8588": "\u2581\u041f\u0430",
  "8589": "\u2581\u0434\u0440\u0443",
  "8590": "\u2581wonderful",
  "8591": ">&",
  "8592": "\u2581Liber",
  "8593": "\u2581scope",
  "8594": "\u2581manage",
  "8595": "\u2581dass",
  "8596": "\u2581recall",
  "8597": "PM",
  "8598": "\u2581relevant",
  "8599": "\u2581Earth",
  "8600": "\u2581\u043a\u0430\u043a",
  "8601": "\u2581apr",
  "8602": "\u2581ASS",
  "8603": "i\u00e9n",
  "8604": "\u2581SH",
  "8605": "oom",
  "8606": "itet",
  "8607": "none",
  "8608": "asi",
  "8609": "\u2581motor",
  "8610": "\u2581Show",
  "8611": "nb",
  "8612": "\u2581factors",
  "8613": "\u2581forest",
  "8614": "\u2581\u0432\u0440\u0435",
  "8615": "thm",
  "8616": "\u2581municip",
  "8617": "\u2581turns",
  "8618": "\u2581Division",
  "8619": "EC",
  "8620": "\u2581disappe",
  "8621": "structor",
  "8622": "\u2581somewhere",
  "8623": "\u2581African",
  "8624": "\u2581Institute",
  "8625": "Grid",
  "8626": "\u2581teacher",
  "8627": "uries",
  "8628": "\u2581respectively",
  "8629": "\u2581SD",
  "8630": "\u2581alive",
  "8631": "\u2581pou",
  "8632": "\u2581Water",
  "8633": "\u0444\u0435",
  "8634": "\u2581changing",
  "8635": "\u2581afternoon",
  "8636": "\u2581orders",
  "8637": "Ret",
  "8638": "Pointer",
  "8639": "\u2581sav",
  "8640": "erg",
  "8641": "oked",
  "8642": "essions",
  "8643": "\u2581Fire",
  "8644": "aret",
  "8645": "imm",
  "8646": "\u2581desire",
  "8647": "\u2581\u0449\u043e",
  "8648": "\u2581Design",
  "8649": "uture",
  "8650": "\u2581Office",
  "8651": "\u2581cmd",
  "8652": "\u2581eating",
  "8653": "Network",
  "8654": "\u2581rough",
  "8655": "operator",
  "8656": "IGN",
  "8657": "\u2581sports",
  "8658": "\u2581weren",
  "8659": "\u2581noted",
  "8660": "\u2581twice",
  "8661": "III",
  "8662": "\u2581anx",
  "8663": "\u2581elim",
  "8664": "\u2581\u0430\u0432",
  "8665": "\u2581io",
  "8666": "\u2581speech",
  "8667": "\u2581condu",
  "8668": "elles",
  "8669": "idade",
  "8670": "\u2581advance",
  "8671": "RI",
  "8672": "oca",
  "8673": "/\\",
  "8674": "apshot",
  "8675": "\u2581tail",
  "8676": "models",
  "8677": "ogy",
  "8678": "\u2581Jeff",
  "8679": "iration",
  "8680": "\u2581Kore",
  "8681": "\u2581leads",
  "8682": "bat",
  "8683": "Adapter",
  "8684": "category",
  "8685": "angular",
  "8686": "\u2581saved",
  "8687": "\u2581uniform",
  "8688": "\u2581n\u00e9",
  "8689": "\u2581businesses",
  "8690": "Hist",
  "8691": "\u2581\u0430\u0440",
  "8692": "domain",
  "8693": "\u2581Si",
  "8694": "raise",
  "8695": "\u2581warn",
  "8696": "hetic",
  "8697": "\u2581Gro",
  "8698": ")).",
  "8699": "}>",
  "8700": "\u0437\u0435",
  "8701": "\u2581Amazon",
  "8702": "\u2581Organ",
  "8703": "\u2581Lake",
  "8704": "\u2581agreement",
  "8705": "xa",
  "8706": "\u2581perman",
  "8707": "\u2581containing",
  "8708": "\u2581strange",
  "8709": "\u0441\u0442\u0456",
  "8710": "\u2581stupid",
  "8711": "\u2581speaking",
  "8712": "\u2581Internet",
  "8713": "prefix",
  "8714": "esc",
  "8715": "Assert",
  "8716": "prote",
  "8717": "\u2581manner",
  "8718": "\u2581Sz",
  "8719": "unte",
  "8720": "iot",
  "8721": "Profile",
  "8722": "oven",
  "8723": "\u2581formed",
  "8724": "\u2581lit",
  "8725": "\u2581economy",
  "8726": "\u2581cz",
  "8727": "wid",
  "8728": "REQ",
  "8729": "\u2581chosen",
  "8730": "\u2581Produ",
  "8731": "oster",
  "8732": "stances",
  "8733": "awa",
  "8734": "\u2581Ren",
  "8735": "\u2581confirm",
  "8736": "\u2581\u0411\u043e",
  "8737": "\u2581billion",
  "8738": "\u2581d\u00e9c",
  "8739": "\u00fdch",
  "8740": "\u2581illustr",
  "8741": "TIES",
  "8742": "\u2581Pub",
  "8743": "\u2581ban",
  "8744": "aded",
  "8745": "ahn",
  "8746": "\u2581Cath",
  "8747": "nonumber",
  "8748": "\u2581worst",
  "8749": "\u2581\u041c\u0435",
  "8750": "\u2581suggested",
  "8751": "stats",
  "8752": "\u2581cant",
  "8753": "\u2581align",
  "8754": "kappa",
  "8755": "\u2581hen",
  "8756": "\u2581initi",
  "8757": "'])",
  "8758": "BI",
  "8759": "\u2581garden",
  "8760": "\u2581secure",
  "8761": "\u2581\\[",
  "8762": "handler",
  "8763": "elli",
  "8764": "ldots",
  "8765": "secut",
  "8766": "\u2581extended",
  "8767": "}-",
  "8768": "anie",
  "8769": "\u2581Find",
  "8770": "\u2581Museum",
  "8771": "\u2581Conne",
  "8772": "yy",
  "8773": "\u2581passion",
  "8774": "akers",
  "8775": "ahr",
  "8776": "ologies",
  "8777": "\u2581equation",
  "8778": "\u2581occasion",
  "8779": "Let",
  "8780": "']['",
  "8781": "Print",
  "8782": "anes",
  "8783": "iente",
  "8784": "\u2581Today",
  "8785": "LECT",
  "8786": "\u2581Af",
  "8787": ",,",
  "8788": "\u2581\u0422\u0430",
  "8789": "\u2581```",
  "8790": "even",
  "8791": "sin",
  "8792": "urer",
  "8793": "\u2581\u00b0",
  "8794": "otimes",
  "8795": "\u2581IO",
  "8796": "\u2581poet",
  "8797": "()));",
  "8798": "\u2581\u2212",
  "8799": "\u2581adopt",
  "8800": "phere",
  "8801": "#[",
  "8802": "\u2581centre",
  "8803": "oves",
  "8804": "\u2581ans",
  "8805": "dp",
  "8806": "\u2581Kir",
  "8807": "\u2581applicable",
  "8808": "fp",
  "8809": "\u2581visual",
  "8810": "\u2581okay",
  "8811": "oro",
  "8812": "\u2581opportunities",
  "8813": "Repository",
  "8814": "\u2581ll",
  "8815": "\u2581Rod",
  "8816": "\u2581shel",
  "8817": "\u2581launch",
  "8818": "\u2581conven",
  "8819": "\u2581Spe",
  "8820": "Amer",
  "8821": "\u2581cette",
  "8822": "Cond",
  "8823": "dep",
  "8824": "Own",
  "8825": "\u2581hook",
  "8826": "\u2581dict",
  "8827": "\u2581Those",
  "8828": "\u2581fellow",
  "8829": "\u2581philosoph",
  "8830": "vin",
  "8831": "ferences",
  "8832": "hav",
  "8833": "\u2581adding",
  "8834": "iverse",
  "8835": "game",
  "8836": "\u2581Blue",
  "8837": "\u2581clin",
  "8838": "note",
  "8839": "\u2581Ram",
  "8840": "\u043c\u0435\u0440",
  "8841": "covery",
  "8842": "\u00f1a",
  "8843": "\u2581\u0431\u0438",
  "8844": "\u2581fashion",
  "8845": "\u2581broke",
  "8846": "\u2581'\\",
  "8847": "\u2581reader",
  "8848": "\u043d\u043e\u0435",
  "8849": "\u043d\u043e\u0441\u0442\u0438",
  "8850": "\u2581payment",
  "8851": "\u2581Lic",
  "8852": "\u2581lips",
  "8853": "\u2581academ",
  "8854": "\u2581Mot",
  "8855": "ells",
  "8856": "CHECK",
  "8857": "\u2581\u0440\u0443",
  "8858": "\u2581MS",
  "8859": "Editor",
  "8860": "\u2581zone",
  "8861": "iture",
  "8862": "\u2581IT",
  "8863": "runtime",
  "8864": "\u2581proceed",
  "8865": "\u043b\u043e\u0432",
  "8866": "\u2581Maria",
  "8867": "olver",
  "8868": "\u2581Thanks",
  "8869": "\u2581shouldn",
  "8870": "\u2581Joh",
  "8871": "\u2581Model",
  "8872": "\u2581Sov",
  "8873": "!'",
  "8874": "Di",
  "8875": "\u2581cancer",
  "8876": "Ident",
  "8877": "\u2581exchange",
  "8878": "iller",
  "8879": "inf",
  "8880": "LEN",
  "8881": "(){",
  "8882": "aga",
  "8883": "\"],",
  "8884": "uh",
  "8885": "\u2581Ken",
  "8886": "\u2581photos",
  "8887": "\u2581tiny",
  "8888": "\u2581gent",
  "8889": "\u00fcl",
  "8890": "\u2581Take",
  "8891": "idel",
  "8892": "outing",
  "8893": "Internal",
  "8894": "\u2581cells",
  "8895": "\u043d\u0438\u043c",
  "8896": "hard",
  "8897": "\u2581Town",
  "8898": "obe",
  "8899": "plex",
  "8900": "\u0442\u0435\u0440",
  "8901": "tons",
  "8902": "\u2581concentr",
  "8903": "mock",
  "8904": "vc",
  "8905": "\u00e1z",
  "8906": "\u2581Championship",
  "8907": "\u2581\u0431\u0435",
  "8908": "??",
  "8909": "\u00e9ri",
  "8910": "aly",
  "8911": "\u2581\u0426",
  "8912": "ierte",
  "8913": "\u2581totally",
  "8914": "\u2581Auf",
  "8915": "\u2581ourselves",
  "8916": "\u2581Self",
  "8917": "Forms",
  "8918": "ighter",
  "8919": "\u2581island",
  "8920": "fmt",
  "8921": "\u2581rc",
  "8922": "\u2581tells",
  "8923": "BB",
  "8924": "dit",
  "8925": "\u2581variables",
  "8926": "\u2581intended",
  "8927": "izont",
  "8928": "\u2581plays",
  "8929": "dam",
  "8930": "seq",
  "8931": "\u2581Sup",
  "8932": "\u2581cultural",
  "8933": "\u2581scream",
  "8934": "__,",
  "8935": "cipl",
  "8936": "Timeout",
  "8937": "\u2581\u0436",
  "8938": "orte",
  "8939": "\u2581replaced",
  "8940": "EM",
  "8941": "\u2581abandon",
  "8942": "\u2581Special",
  "8943": "ellen",
  "8944": "\u2581Bru",
  "8945": "irmed",
  "8946": "Te",
  "8947": "olt",
  "8948": "ju",
  "8949": "Argument",
  "8950": "\u2581neut",
  "8951": "scape",
  "8952": "\u2581Ray",
  "8953": "\u2581Polit",
  "8954": "\u2581crowd",
  "8955": "\u2581Windows",
  "8956": "iego",
  "8957": "\u2581escape",
  "8958": "\u2581Apache",
  "8959": "sync",
  "8960": "eben",
  "8961": "ifies",
  "8962": "ether",
  "8963": "Meta",
  "8964": "\u2581biggest",
  "8965": "Game",
  "8966": "\u2581transaction",
  "8967": "Env",
  "8968": "\u2581\u041c\u043e",
  "8969": "\u2581plenty",
  "8970": "\u2581mel",
  "8971": "\u043f\u0440\u0435",
  "8972": "\u2581motiv",
  "8973": "\u2581\u043e\u0440",
  "8974": "organ",
  "8975": "\u2581mock",
  "8976": "\u2581$_",
  "8977": "\u0435\u043d\u0435",
  "8978": "\u2581Number",
  "8979": "cknow",
  "8980": "\u2581Update",
  "8981": "zero",
  "8982": "\u2581surprise",
  "8983": "cean",
  "8984": "pdf",
  "8985": "Global",
  "8986": "\u2581attend",
  "8987": "\u2581fond",
  "8988": "\u2581understood",
  "8989": "Nav",
  "8990": "\u2581Mic",
  "8991": "=$",
  "8992": "oking",
  "8993": "\u2581Stadium",
  "8994": "Close",
  "8995": "\u2581competition",
  "8996": "\u2581soldiers",
  "8997": "\u2581OP",
  "8998": "agne",
  "8999": "\u2581Anton",
  "9000": "Main",
  "9001": "\u00e1k",
  "9002": "\u2581#[",
  "9003": "\u2581Commit",
  "9004": "pyx",
  "9005": "\u2581east",
  "9006": "\u2581Order",
  "9007": "Float",
  "9008": "\u2581accepted",
  "9009": "\u2581monitor",
  "9010": "\u2581pad",
  "9011": "onic",
  "9012": "\u2581pushed",
  "9013": "\u2581replace",
  "9014": "CRE",
  "9015": "\u2581ride",
  "9016": "found",
  "9017": "=%",
  "9018": "\u0432\u043e\u0439",
  "9019": "\u2581matches",
  "9020": "\u2581Lie",
  "9021": "\u2581experiences",
  "9022": "Pool",
  "9023": "ups",
  "9024": "AV",
  "9025": "\u2581existence",
  "9026": "\u2581thin",
  "9027": "\u2581magn",
  "9028": "COMP",
  "9029": "home",
  "9030": "\u2581ni",
  "9031": "\u2581wurden",
  "9032": "\u043b\u0430\u0432",
  "9033": "\u2581teeth",
  "9034": "\u2581Stan",
  "9035": "appro",
  "9036": "anny",
  "9037": "ifts",
  "9038": "\u2581unknown",
  "9039": "\u2581homes",
  "9040": "\u2581entity",
  "9041": "cie",
  "9042": "\u043b\u0435\u043d\u0438\u0435",
  "9043": "iar",
  "9044": "\u2581compliance",
  "9045": "\u2581focused",
  "9046": "uzz",
  "9047": "=\\\"",
  "9048": "components",
  "9049": "Attr",
  "9050": "allery",
  "9051": "\u2581identify",
  "9052": "Ok",
  "9053": "pie",
  "9054": "\u2581Still",
  "9055": "\u2581offering",
  "9056": "\u2581busy",
  "9057": "ctl",
  "9058": "itors",
  "9059": "\u2581concerned",
  "9060": "\u2581brown",
  "9061": "clk",
  "9062": "Selected",
  "9063": "\u2581Block",
  "9064": "\u2581egy",
  "9065": "icing",
  "9066": "\u2581URL",
  "9067": "\u2581topic",
  "9068": "\u2581Product",
  "9069": "\u2581\u0447\u0438",
  "9070": "\u2581trial",
  "9071": "\u2581weekend",
  "9072": "lu",
  "9073": "\u2581IV",
  "9074": "\u2581Egy",
  "9075": "xC",
  "9076": "\u2581nove",
  "9077": "\u2581lett",
  "9078": "enne",
  "9079": "()).",
  "9080": ".**",
  "9081": "\u2581promise",
  "9082": "election",
  "9083": "Auth",
  "9084": "rv",
  "9085": "ril",
  "9086": "\u2581conduct",
  "9087": "\u2581maintain",
  "9088": "\u2581boat",
  "9089": "\u2581opposite",
  "9090": "spin",
  "9091": "webpack",
  "9092": "anta",
  "9093": "\u2581orient",
  "9094": "\u2581suc",
  "9095": "\u2581exercise",
  "9096": "\u2581efficient",
  "9097": "\u2581tradition",
  "9098": "\u2581zw",
  "9099": "\u2581Sud",
  "9100": "going",
  "9101": "\u2581Pier",
  "9102": "inv",
  "9103": "ipes",
  "9104": "ensuremath",
  "9105": "\u2581conver",
  "9106": "creen",
  "9107": "\u2581terror",
  "9108": "\u2581Dou",
  "9109": "\u2581invalid",
  "9110": "ceived",
  "9111": "\u2581Arab",
  "9112": "\u2581wire",
  "9113": "application",
  "9114": "shift",
  "9115": "Generic",
  "9116": "\u2581Plan",
  "9117": "\u2581Wall",
  "9118": "\u2581directory",
  "9119": "\u2581egg",
  "9120": "\u2581wealth",
  "9121": "random",
  "9122": "attribute",
  "9123": "\u2581hide",
  "9124": "Serial",
  "9125": "cam",
  "9126": "\u2581ital",
  "9127": "\u2581Line",
  "9128": "\u2581CHECK",
  "9129": "ployment",
  "9130": "\u2581massive",
  "9131": "\u2581extract",
  "9132": "chain",
  "9133": "Rest",
  "9134": "\u2581Las",
  "9135": "\u2581bear",
  "9136": "\u2581links",
  "9137": "\u2581newsp",
  "9138": "\u2581FC",
  "9139": "Card",
  "9140": "aks",
  "9141": "\u2581visible",
  "9142": "\u2581Marc",
  "9143": "\u2581Boston",
  "9144": "\u2581reserved",
  "9145": "\u2581roof",
  "9146": "licenses",
  "9147": "dc",
  "9148": "\u2581Information",
  "9149": "\u2581witness",
  "9150": "Sk",
  "9151": "*),",
  "9152": "Scope",
  "9153": "'];",
  "9154": "\u2581Mir",
  "9155": "uding",
  "9156": "\u2581trend",
  "9157": "rep",
  "9158": "\u2581musical",
  "9159": "\u2581neither",
  "9160": "\u2581Creat",
  "9161": "\u2581positions",
  "9162": "LC",
  "9163": "ridge",
  "9164": "\u2581officers",
  "9165": "\u2581violence",
  "9166": "\u2581Tem",
  "9167": "\u2581Sus",
  "9168": "\u2581Way",
  "9169": "After",
  "9170": "acket",
  "9171": "\u2581Sou",
  "9172": "acer",
  "9173": "||",
  "9174": "\u2581remark",
  "9175": "water",
  "9176": "n\u011b",
  "9177": "\u2581\u0421\u0430",
  "9178": "\u2581sed",
  "9179": "Each",
  "9180": "\u2581photograph",
  "9181": "\u2581letters",
  "9182": "\u2581invent",
  "9183": "\u2581Mas",
  "9184": "\u2581songs",
  "9185": "\u00f3l",
  "9186": "kind",
  "9187": "\u2581Non",
  "9188": "\u2581dust",
  "9189": "**:",
  "9190": "nabla",
  "9191": ".\",",
  "9192": "Lock",
  "9193": "\u2581\u0414\u043e",
  "9194": "\u2581cluster",
  "9195": "loss",
  "9196": "\u2581ASSERT",
  "9197": "fall",
  "9198": "\u2581reject",
  "9199": "\u2581Spring",
  "9200": "\u2581wedding",
  "9201": "\u2581grav",
  "9202": "ression",
  "9203": "limit",
  "9204": "RES",
  "9205": "]}",
  "9206": "\u2581listed",
  "9207": "\u2581Tele",
  "9208": "hline",
  "9209": "\u2581chief",
  "9210": "MEM",
  "9211": "\u0434\u0430\u0440",
  "9212": "\u2581expensive",
  "9213": "trace",
  "9214": "\u2581Rog",
[...]
